{
  "vocab": {
    "##cans": 26642,
    "##ulates": 18969,
    "##borg": 11755,
    "lining": 14834,
    "livingstone": 27656,
    "reject": 15454,
    "##ł": 18818,
    "celebrate": 8439,
    "65": 3515,
    "chairman": 3472,
    "β": 1156,
    "clapped": 18310,
    "departmental": 28912,
    "alongside": 4077,
    "[unused566]": 571,
    "gospels": 24131,
    "##pg": 26952,
    "parrot": 22530,
    "struggles": 11785,
    "jordanian": 26276,
    "##tative": 27453,
    "peshawar": 28777,
    "ea": 19413,
    "##lwyn": 29287,
    "##kar": 6673,
    "consequence": 9509,
    "etudes": 25041,
    "##rera": 24068,
    "morrison": 9959,
    "##rl": 12190,
    "##kill": 15872,
    "ladder": 10535,
    "decomposition": 22511,
    "faerie": 27498,
    "if": 2065,
    "adorned": 19189,
    "nehru": 23556,
    "dismissing": 28913,
    "##al": 2389,
    "lived": 2973,
    "pitcher": 8070,
    "##corp": 24586,
    "[unused91]": 92,
    "##vard": 25911,
    "##lington": 18722,
    "deported": 17929,
    "[unused29]": 30,
    "##cts": 16649,
    "##dron": 19440,
    "##bund": 27265,
    "segunda": 19071,
    "acc": 16222,
    "bust": 13950,
    "rosenberg": 21069,
    "flutes": 28453,
    "kissing": 7618,
    "interchange": 8989,
    "oasis": 18128,
    "yielded": 17544,
    "realizing": 9301,
    "##opers": 27342,
    "mercury": 8714,
    "rafael": 10999,
    "[unused767]": 772,
    "took": 2165,
    "housemates": 28152,
    "reactor": 13308,
    "carbonate": 26427,
    "##quitable": 28298,
    "##para": 28689,
    "investigating": 11538,
    "possession": 6664,
    "accountable": 26771,
    "unsigned": 27121,
    "net": 5658,
    "anniversary": 5315,
    "writers": 4898,
    "tun": 27112,
    "##eering": 20550,
    "##ability": 8010,
    "sinks": 23462,
    "couch": 6411,
    "asean": 27974,
    "carried": 3344,
    "surpassed": 15602,
    "cao": 12966,
    "supervisor": 12366,
    "sigma": 13201,
    "motionless": 19917,
    "##nding": 15683,
    "##eis": 17580,
    "renovations": 15576,
    "##ama": 8067,
    "accompanying": 10860,
    "rank": 4635,
    "creatures": 7329,
    "jim": 3958,
    "trailing": 12542,
    "traffic": 4026,
    "rifle": 5883,
    "exploding": 20728,
    "##tors": 6591,
    "ʼ": 1146,
    "reformer": 24767,
    "equatorial": 21333,
    "giggle": 17565,
    "su": 10514,
    "ensued": 18942,
    "[unused7]": 8,
    "insults": 23862,
    "solitude": 22560,
    "sutherland": 14274,
    "fixture": 15083,
    "area": 2181,
    "oblivion": 24034,
    "##sboro": 25623,
    "blankly": 26344,
    "##ains": 28247,
    "brow": 8306,
    "landfill": 28382,
    "mcgraw": 24179,
    "recognized": 3858,
    "maids": 29229,
    "##lun": 26896,
    "emeritus": 12372,
    "acted": 6051,
    "emptiness": 23397,
    "span": 8487,
    "##rice": 17599,
    "alloys": 28655,
    "##œ": 29674,
    "##mania": 27010,
    "escorts": 24877,
    "a1": 17350,
    "repealed": 21492,
    "石": 1922,
    "rca": 12639,
    "exam": 11360,
    "voodoo": 21768,
    "collaborator": 18843,
    "problem": 3291,
    "paying": 7079,
    "know": 2113,
    "married": 2496,
    "wholesale": 17264,
    "voluntarily": 17912,
    "crambidae": 21585,
    "extension": 5331,
    "##cake": 17955,
    "grateful": 8794,
    "hunched": 20498,
    "2021": 25682,
    "shirley": 11280,
    "##cula": 19879,
    "reveal": 7487,
    "macedonian": 13037,
    "⁺": 1544,
    "rendezvous": 20558,
    "jessie": 10934,
    "hillsborough": 29330,
    "fourth": 2959,
    "chatham": 16727,
    "52": 4720,
    "brood": 25565,
    "swelled": 21851,
    "ল": 1373,
    "writing": 3015,
    "[unused127]": 132,
    "##口": 30314,
    "thyroid": 29610,
    "terrain": 9291,
    "anthology": 9637,
    "dario": 26800,
    "##ises": 13087,
    "##wen": 12449,
    "wang": 7418,
    "##ulum": 25100,
    "##nis": 8977,
    "libel": 26201,
    "##ɨ": 29684,
    "training": 2731,
    "÷": 1099,
    "reacher": 22970,
    "adhere": 25276,
    "cheney": 23745,
    "academy": 2914,
    "##oza": 25036,
    "##cing": 6129,
    "[unused719]": 724,
    "explorers": 19264,
    "##gic": 12863,
    "cramped": 22766,
    "schumann": 29448,
    "rubbing": 10137,
    "##omics": 25524,
    "widowed": 22874,
    "##ষ": 29911,
    "##√": 30127,
    "spare": 8622,
    "pitching": 14696,
    "embarrassing": 16436,
    "##⇄": 30117,
    "cruiser": 10844,
    "##ة": 19433,
    "arches": 13540,
    "limestone": 9771,
    "caps": 9700,
    "stroked": 11699,
    "panted": 28149,
    "wwf": 16779,
    "sonic": 12728,
    "failed": 3478,
    "##°": 7737,
    "##duk": 28351,
    "mackay": 17090,
    "1500": 10347,
    "flinched": 19201,
    "elsa": 23452,
    "ส": 1420,
    "##tley": 18492,
    "trickle": 26027,
    "kerry": 11260,
    "cannes": 14775,
    "plenty": 7564,
    "rowing": 12037,
    "1986": 3069,
    "##het": 27065,
    "##51": 22203,
    "seine": 16470,
    "fingers": 3093,
    "ர": 1391,
    "[unused579]": 584,
    "fiba": 13651,
    "##pi": 8197,
    "diagnostic": 16474,
    "insignia": 16751,
    "森": 1882,
    "##erman": 18689,
    "##dley": 14232,
    "mitch": 11857,
    "montrose": 24990,
    "##dong": 17679,
    "jaws": 16113,
    "rhineland": 21640,
    "ლ": 1447,
    "hybrid": 8893,
    "##pate": 17585,
    "unbroken": 29505,
    "adherence": 29235,
    "beans": 13435,
    "notebook": 14960,
    "100": 2531,
    "none": 3904,
    "bolshevik": 24477,
    "sweet": 4086,
    "##tively": 25499,
    "mounted": 5614,
    "drank": 10749,
    "bout": 10094,
    "manchu": 26650,
    "##ardo": 24649,
    "##ʊ": 29698,
    "178": 19289,
    "rand": 14566,
    "downtown": 5116,
    "recordings": 5633,
    "satirical": 17251,
    "401": 22649,
    "##hc": 16257,
    "poets": 9736,
    "frankish": 26165,
    "義": 1936,
    "lacrosse": 13488,
    "accidental": 17128,
    "terminates": 28790,
    "consensus": 10465,
    "javier": 13824,
    "water": 2300,
    "amateurs": 24361,
    "##shot": 19040,
    "##oof": 21511,
    "internacional": 27607,
    "explosion": 7738,
    "moldova": 16772,
    "ɛ": 1115,
    "routed": 19578,
    "alpha": 6541,
    "catchment": 22865,
    "agree": 5993,
    "burrows": 22009,
    "dame": 8214,
    "nineteen": 11977,
    "600": 5174,
    "bruins": 18159,
    "ᅲ": 1480,
    "ე": 1442,
    "ل": 1294,
    "fiscal": 10807,
    "matrices": 21520,
    "橋": 1885,
    "##urst": 29402,
    "420": 17442,
    "reclaim": 24104,
    "[unused944]": 949,
    "##ttes": 14581,
    "focal": 15918,
    "##itt": 12474,
    "businessmen": 17353,
    "controversies": 25962,
    "モ": 1727,
    "##ered": 6850,
    "initiate": 17820,
    "resultant": 28573,
    "shaking": 5513,
    "headlined": 25214,
    "rented": 12524,
    "distortion": 20870,
    "relic": 24933,
    "rapids": 12775,
    "[unused919]": 924,
    "crawl": 13529,
    "captive": 12481,
    "##oman": 20778,
    "nautical": 11339,
    "[unused954]": 959,
    "withdrawing": 21779,
    "kyiv": 25669,
    "restrict": 21573,
    "##ned": 7228,
    "katherine": 9477,
    "##rts": 21217,
    "divide": 11443,
    "ras": 20710,
    "swirl": 28693,
    "malaria": 19132,
    "[unused56]": 57,
    "erect": 14908,
    "shadowed": 25843,
    "2006": 2294,
    "cadence": 23620,
    "proportional": 14267,
    "delivers": 18058,
    "mural": 15533,
    "career": 2476,
    "nmi": 22484,
    "leyte": 27214,
    "terminals": 17703,
    "lists": 7201,
    "interviewed": 10263,
    "weed": 17901,
    "garage": 7381,
    "cl": 18856,
    "counts": 9294,
    "##un": 4609,
    "nigerian": 11884,
    "##bot": 18384,
    "crumbling": 24827,
    "chopra": 28826,
    "##ony": 16585,
    "mysore": 20761,
    "digging": 10443,
    "[unused107]": 112,
    "percentage": 7017,
    "impress": 17894,
    "superman": 10646,
    "##usa": 10383,
    "[unused65]": 66,
    "harlan": 24276,
    "introduces": 13999,
    "potion": 26722,
    "##dell": 12662,
    "mandates": 25979,
    "bed": 2793,
    "lance": 9993,
    "##nos": 15460,
    "verb": 12034,
    "slacks": 27786,
    "##etti": 18319,
    "287": 23090,
    "precision": 11718,
    "mills": 6341,
    "hammered": 25756,
    "##18": 15136,
    "##ard": 4232,
    "seizure": 18634,
    "killed": 2730,
    "jul": 21650,
    "azores": 28320,
    "powerhouse": 24006,
    "organist": 16397,
    "cups": 10268,
    "ी": 1342,
    "##idi": 28173,
    "##oor": 16506,
    "did": 2106,
    "inadvertently": 21089,
    "replicate": 28024,
    "##ifier": 18095,
    "accept": 5138,
    "archipelago": 13888,
    "##eak": 25508,
    "surrender": 7806,
    "sophia": 9665,
    "##վ": 29782,
    "sensual": 18753,
    "truly": 5621,
    "crimes": 6997,
    "therapist": 19294,
    "eucalyptus": 27111,
    "##bbling": 15343,
    "357": 26231,
    "assured": 8916,
    "experimental": 6388,
    "ancient": 3418,
    "temperature": 4860,
    "hereford": 21136,
    "biceps": 27947,
    "pin": 9231,
    "##tucket": 29315,
    "kristin": 25130,
    "00pm": 27995,
    "##lom": 21297,
    "wept": 24966,
    "nicholas": 6141,
    "livingston": 14109,
    "express": 4671,
    "doomed": 20076,
    "plume": 26888,
    "უ": 1454,
    "nee": 7663,
    "[unused685]": 690,
    "syndication": 26973,
    "jan": 5553,
    "protocol": 8778,
    "photographer": 8088,
    "sheffield": 8533,
    "toilets": 21674,
    "jupiter": 13035,
    "fights": 9590,
    "止": 1887,
    "exported": 15612,
    "staircase": 10714,
    "bermuda": 13525,
    "[unused106]": 111,
    "position": 2597,
    "montenegrin": 24099,
    "ア": 1693,
    "##rda": 13639,
    "burke": 9894,
    "tie": 5495,
    "dunedin": 22020,
    "selection": 4989,
    "##tub": 28251,
    "directive": 16449,
    "1750": 18171,
    "##民": 30418,
    "vikings": 13468,
    "cult": 8754,
    "preferred": 6871,
    "##lez": 28060,
    "##rp": 14536,
    "harbor": 6496,
    "60th": 20928,
    "[unused273]": 278,
    "maggie": 8538,
    "sore": 14699,
    "##zar": 9057,
    "##ptive": 24971,
    "dates": 5246,
    "hugging": 17662,
    "momentarily": 16032,
    "observation": 8089,
    "##bert": 8296,
    "disguise": 14249,
    "hi": 7632,
    "pursuing": 11828,
    "amiga": 24126,
    "tombs": 16623,
    "frame": 4853,
    "[unused567]": 572,
    "downhill": 19448,
    "26th": 14935,
    "brothel": 27308,
    "tasha": 25448,
    "rooms": 4734,
    "keyboard": 9019,
    "##hai": 10932,
    "son": 2365,
    "bulletin": 13146,
    "##ovo": 16059,
    "coaching": 7748,
    "saying": 3038,
    "falkland": 25257,
    "publicly": 7271,
    "privileged": 21598,
    "campuses": 13696,
    "##ses": 8583,
    "handbook": 14812,
    "benevolent": 25786,
    "railroad": 4296,
    "lear": 26511,
    "loops": 15932,
    "##cb": 27421,
    "##辶": 30482,
    "preview": 19236,
    "1990": 2901,
    "##brook": 9697,
    "convection": 23849,
    "cassette": 13903,
    "lissa": 20244,
    "lennox": 21060,
    "belle": 9852,
    "dart": 14957,
    "collateral": 24172,
    "darkening": 27862,
    "joyah": 27098,
    "albion": 13392,
    "liturgical": 19246,
    "acid": 5648,
    "[unused688]": 693,
    "##atic": 12070,
    "european": 2647,
    "contention": 18974,
    "reggie": 17963,
    "paste": 19351,
    "ʎ": 1135,
    "##ists": 5130,
    "silent": 4333,
    "rosy": 26851,
    "printer": 15041,
    "##nig": 25518,
    "mcguire": 23872,
    "litres": 25783,
    "represented": 3421,
    "sicily": 12071,
    "excessive": 11664,
    "##imi": 27605,
    "midwest": 13608,
    "historic": 3181,
    "salts": 23480,
    "werewolf": 12797,
    "#": 1001,
    "make": 2191,
    "lacking": 11158,
    "munchen": 25802,
    "##dity": 25469,
    "egyptian": 6811,
    "tim": 5199,
    "paul": 2703,
    "bryn": 19904,
    "[unused991]": 996,
    "tempting": 23421,
    "advancement": 12607,
    "algorithm": 9896,
    "mps": 12616,
    "cones": 23825,
    "wrecked": 18480,
    "##inatory": 28230,
    "suitable": 7218,
    "brewer": 18710,
    "aerodrome": 23843,
    "employ": 12666,
    "28th": 15538,
    "bjp": 24954,
    "covert": 19813,
    "dive": 11529,
    "[unused916]": 921,
    "parts": 3033,
    "##ettes": 26592,
    "##sey": 7952,
    "##khov": 25495,
    "lands": 4915,
    "quiz": 19461,
    "北": 1781,
    "angels": 7048,
    "jr": 3781,
    "##rok": 27923,
    "collaborative": 12317,
    "forgot": 9471,
    "[unused235]": 240,
    "##grants": 27444,
    "resumed": 7943,
    "july": 2251,
    "atv": 29108,
    "disposed": 21866,
    "historia": 19891,
    "bestseller": 24304,
    "wee": 16776,
    "oven": 17428,
    "midday": 22878,
    "[unused789]": 794,
    "urdu": 12454,
    "##isan": 29196,
    "magazines": 7298,
    "finale": 9599,
    "tormented": 29026,
    "imagined": 8078,
    "slade": 18048,
    "##安": 30346,
    "ao": 20118,
    "saharan": 24505,
    "licence": 11172,
    "marketed": 11625,
    "jakarta": 14426,
    "jia": 25871,
    "268": 25143,
    "stick": 6293,
    "##e": 2063,
    "crimson": 11466,
    "##foil": 24323,
    "highness": 17114,
    "##ddle": 20338,
    "con": 9530,
    "domestically": 27143,
    "legends": 9489,
    "##ft": 6199,
    "logs": 15664,
    "brutal": 12077,
    "leash": 26834,
    "scholarship": 6566,
    "##hel": 16001,
    "through": 2083,
    "##eto": 18903,
    "[unused246]": 251,
    "diameter": 6705,
    "minded": 13128,
    "hum": 14910,
    "communion": 15661,
    "baltimore": 6222,
    "gunn": 22079,
    "imprisoned": 8580,
    "medley": 13863,
    "[unused336]": 341,
    "storey": 11676,
    "д": 1184,
    "##agh": 17988,
    "strengths": 20828,
    "元": 1769,
    "##morphism": 19539,
    "я": 1210,
    "##iba": 18410,
    "##uding": 24539,
    "##din": 8718,
    "straits": 18849,
    "builders": 16472,
    "zombies": 14106,
    "tsunami": 19267,
    "##თ": 29980,
    "mold": 18282,
    "ᄆ": 1459,
    "chorale": 26561,
    "revelation": 11449,
    "urban": 3923,
    "##ب": 29816,
    "slovenia": 10307,
    "##ם": 29800,
    "polka": 29499,
    "##mbs": 29232,
    "periods": 6993,
    "acknowledge": 13399,
    "##icient": 20132,
    "cerambycidae": 13168,
    "cy": 22330,
    "zero": 5717,
    "##nai": 26416,
    "diamond": 6323,
    "pluto": 26930,
    "gallery": 3916,
    "communications": 4806,
    "poland": 3735,
    "lagoon": 15825,
    "shores": 13312,
    "ा": 1340,
    "##estinal": 19126,
    "ロ": 1735,
    "homes": 5014,
    "pricing": 20874,
    "##pour": 27757,
    "bracelet": 19688,
    "##weig": 27204,
    "[unused187]": 192,
    "sobbing": 20040,
    "258": 24398,
    "chrome": 18546,
    "specials": 19247,
    "[unused605]": 610,
    "predatory": 21659,
    "william": 2520,
    "reluctance": 21662,
    "feathers": 12261,
    "[unused422]": 427,
    "[unused202]": 207,
    "##trics": 29392,
    "1800s": 19878,
    "[unused667]": 672,
    "steamer": 18027,
    "kira": 15163,
    "endeavors": 28809,
    "confiscated": 17182,
    "info": 18558,
    "francesca": 15409,
    "articles": 4790,
    "lublin": 18967,
    "##iers": 10136,
    "hadley": 21681,
    "manages": 9020,
    "probable": 15596,
    "##play": 13068,
    "wendy": 12815,
    "jointly": 10776,
    "reduction": 7312,
    "jumped": 5598,
    "##del": 9247,
    "discs": 15303,
    "tended": 11121,
    "marked": 4417,
    "##zzi": 13793,
    "assembled": 9240,
    "pacing": 15732,
    "##ogical": 20734,
    "ladies": 6456,
    "grams": 20372,
    "lion": 7006,
    "ballistic": 19630,
    "tanzania": 11959,
    "介": 1759,
    "cent": 9358,
    "##eber": 22669,
    "##mbit": 28878,
    "translate": 17637,
    "##cuting": 29163,
    "##vani": 27760,
    "reserved": 9235,
    "[unused785]": 790,
    "adolescents": 25947,
    "eaton": 17642,
    "positively": 13567,
    "##sume": 23545,
    "plead": 25803,
    "##yuki": 19663,
    "leased": 12019,
    "plug": 13354,
    "stacey": 19997,
    "handwriting": 24149,
    "flavour": 28126,
    "generations": 8213,
    "railroads": 16197,
    "dismissed": 7219,
    "##ometer": 18721,
    "[unused564]": 569,
    "metropolitan": 4956,
    "pillar": 14809,
    "baptized": 19775,
    "1979": 3245,
    "uncertain": 9662,
    "##hall": 9892,
    "1860": 7313,
    "ape": 23957,
    "##`": 29639,
    "soc": 27084,
    "197": 19975,
    "whitehead": 23257,
    "panicked": 16035,
    "##サ": 30231,
    "learned": 4342,
    "delgado": 26532,
    "pinyin": 9973,
    "template": 23561,
    "##lein": 19856,
    "luis": 6446,
    "independent": 2981,
    "italia": 13052,
    "manipulating": 26242,
    "warden": 13745,
    "yer": 20416,
    "##space": 23058,
    "##cer": 17119,
    "##gano": 29451,
    "painful": 9145,
    "[unused468]": 473,
    "squinting": 29156,
    "buddhism": 11388,
    "vickers": 18571,
    "juliette": 24696,
    "reversed": 11674,
    "absorbing": 20998,
    "weeping": 19750,
    "ordeal": 23304,
    "hub": 9594,
    "##tens": 25808,
    "rappers": 28257,
    "packing": 14743,
    "ʐ": 1136,
    "burnley": 23028,
    "barack": 13857,
    "proceeds": 10951,
    "##pel": 11880,
    "##oma": 9626,
    "dentist": 24385,
    "##ces": 9623,
    "closed": 2701,
    "##უ": 29990,
    "thorn": 16337,
    "incredibly": 11757,
    "memphis": 9774,
    "congo": 9030,
    "##rini": 22612,
    "[unused988]": 993,
    "scrolling": 28903,
    "mammalian": 26524,
    "##ing": 2075,
    "walking": 3788,
    "ankles": 15392,
    "##tre": 7913,
    "[unused630]": 635,
    "edo": 18314,
    "##hh": 23644,
    "attend": 5463,
    "court": 2457,
    "tricks": 12225,
    "stove": 16247,
    "mapping": 12375,
    "##bed": 8270,
    "[unused851]": 856,
    "resistance": 5012,
    "variability": 28436,
    "traded": 7007,
    "wished": 6257,
    "dipping": 23427,
    "##ih": 19190,
    "british": 2329,
    "ann": 5754,
    "havre": 28890,
    "##zie": 14272,
    "〜": 1645,
    "##aday": 28039,
    "##text": 18209,
    "judgement": 16646,
    "stabilized": 27697,
    "reaching": 4285,
    "##ised": 5084,
    "expulsion": 18272,
    "lithuanian": 10333,
    "catcher": 13795,
    "parana": 28383,
    "gui": 26458,
    "proto": 15053,
    "ties": 7208,
    "[unused860]": 865,
    "lowlands": 26411,
    "foxes": 24623,
    "夫": 1813,
    "altar": 9216,
    "selling": 4855,
    "hesitant": 20221,
    "revenge": 7195,
    "securely": 28999,
    "ricardo": 13559,
    "exile": 8340,
    "americans": 4841,
    "averages": 20185,
    "fabian": 21174,
    "requesting": 17942,
    "miniature": 12973,
    "rfc": 14645,
    "amounts": 8310,
    "[unused173]": 178,
    "drone": 18465,
    "##teacher": 24741,
    "traveled": 6158,
    "[PAD]": 0,
    "##ll": 3363,
    "intensity": 8015,
    "palais": 22113,
    "substantially": 12381,
    "patsy": 25382,
    "harlem": 14864,
    "apple": 6207,
    "showcased": 22443,
    "occupation": 6139,
    "reduced": 4359,
    "rob": 6487,
    "lesser": 8276,
    "coughed": 19055,
    "##raz": 20409,
    "##isk": 20573,
    "advisor": 8619,
    "blouse": 18149,
    "##rte": 19731,
    "[unused230]": 235,
    "osman": 28609,
    "1702": 26776,
    "##ense": 16700,
    "watched": 3427,
    "[unused430]": 435,
    "ridges": 16386,
    "miners": 11257,
    "50th": 12951,
    "basketball": 3455,
    "[unused108]": 113,
    "1672": 27253,
    "stadium": 3346,
    "staffordshire": 17052,
    "procedural": 24508,
    "bragg": 23678,
    "latch": 25635,
    "##は": 30198,
    "##ぬ": 30195,
    "##zek": 24506,
    "enforcing": 27455,
    "kent": 5982,
    "elections": 3864,
    "deceased": 10181,
    "hide": 5342,
    "omnibus": 27284,
    "spilling": 18054,
    "nape": 23634,
    "what": 2054,
    "confines": 25722,
    "[unused578]": 583,
    "column": 5930,
    "improving": 9229,
    "debra": 28762,
    "exclaimed": 12713,
    "luton": 17807,
    "##‰": 30065,
    "minnie": 26188,
    "afford": 8984,
    "##pad": 15455,
    "convicted": 7979,
    "##ceae": 9071,
    "orbital": 13943,
    "之": 1749,
    "bn": 24869,
    "situations": 8146,
    "##sts": 12837,
    "##brush": 18623,
    "mundane": 24684,
    "routing": 16972,
    "evolving": 20607,
    "[unused709]": 714,
    "lisbon": 11929,
    "missed": 4771,
    "domination": 17882,
    "storm": 4040,
    "##о": 14150,
    "mastering": 11495,
    "##udi": 21041,
    "surreal": 16524,
    "refusing": 11193,
    "337": 28489,
    "prone": 13047,
    "spaniards": 20999,
    "malls": 25943,
    "tanya": 19956,
    "##ত": 29898,
    "planet": 4774,
    "pleasant": 8242,
    "##nable": 22966,
    "##ie": 2666,
    "number": 2193,
    "moving": 3048,
    "warmer": 16676,
    "blanc": 18698,
    "##vah": 21927,
    "think": 2228,
    "kurt": 9679,
    "goodbye": 9119,
    "th": 16215,
    "朝": 1874,
    "##rsk": 27472,
    "fed": 7349,
    "cliffs": 13333,
    "##hett": 28499,
    "wig": 24405,
    "mayors": 21941,
    "liquid": 6381,
    "shame": 9467,
    "connell": 17199,
    "tau": 19982,
    "bald": 13852,
    "allen": 5297,
    "ebony": 27680,
    "theodore": 10117,
    "[unused287]": 292,
    "ᄌ": 1464,
    "iron": 3707,
    "arboretum": 25197,
    "leiden": 20329,
    "loading": 10578,
    "become": 2468,
    "##介": 30285,
    "acute": 11325,
    "payments": 10504,
    "##making": 12614,
    "##bone": 14417,
    "122": 13092,
    "cleopatra": 22003,
    "state": 2110,
    "32": 3590,
    "deserved": 10849,
    "geologic": 22125,
    "managed": 3266,
    "##ritan": 25279,
    "aluminum": 13061,
    "relies": 16803,
    "halls": 9873,
    "parents": 3008,
    "##₍": 30087,
    "jumper": 21097,
    "paperback": 13611,
    "島": 1833,
    "immune": 11311,
    "expert": 6739,
    "landowners": 20152,
    "sac": 17266,
    "affecting": 12473,
    "##core": 17345,
    "ideology": 13165,
    "tunnels": 10633,
    "stuttgart": 13022,
    "easily": 4089,
    "made": 2081,
    "asked": 2356,
    "##osed": 24768,
    "won": 2180,
    "ᄒ": 1469,
    "coffin": 13123,
    "##₤": 30100,
    "dragon": 5202,
    "##ছ": 29893,
    "[unused596]": 601,
    "20th": 3983,
    "executives": 12706,
    "computation": 22334,
    "traumatic": 19686,
    "##pper": 18620,
    "kelvin": 24810,
    "tailed": 14578,
    "##xon": 22500,
    "murmurs": 22888,
    "fortunately": 14599,
    "308": 24232,
    "##%": 29616,
    "window": 3332,
    "##kian": 28545,
    "manuscript": 8356,
    "prosecutor": 12478,
    "launch": 4888,
    "##iya": 8717,
    "unlawful": 22300,
    "dexter": 14375,
    "##polis": 17699,
    "dt": 26718,
    "swift": 9170,
    "mann": 10856,
    "expanding": 9186,
    "baku": 16807,
    "corresponding": 7978,
    "##aling": 21682,
    "[unused168]": 173,
    "isaac": 7527,
    "gregor": 16973,
    "##zin": 17168,
    "##iform": 22631,
    "assigned": 4137,
    "compensation": 9430,
    "##士": 30333,
    "cynical": 26881,
    "1733": 27230,
    "ɨ": 1118,
    "declined": 6430,
    "disapproval": 21406,
    "squirrels": 29384,
    "own": 2219,
    "revolutionary": 6208,
    "tomb": 8136,
    "##¢": 29645,
    "difficulties": 8190,
    "wehrmacht": 23443,
    "scheduling": 19940,
    "melted": 12501,
    "##т": 22919,
    "paraguay": 13884,
    "you": 2017,
    "##58": 27814,
    "woman": 2450,
    "proportion": 10817,
    "babe": 11561,
    "smashed": 14368,
    "means": 2965,
    "1610": 25800,
    "withdrawal": 10534,
    "tai": 13843,
    "liszt": 26273,
    "base": 2918,
    "photographed": 16164,
    "terminus": 7342,
    "1736": 28192,
    "fran": 23151,
    "gaines": 28645,
    "knocked": 6573,
    "contractor": 13666,
    "##•": 30063,
    "self": 2969,
    "marguerite": 15334,
    "random": 6721,
    "##治": 30426,
    "pest": 20739,
    "##ich": 7033,
    "sis": 24761,
    "##ub": 12083,
    "stereotypes": 22807,
    "ease": 7496,
    "postseason": 17525,
    "alternate": 6585,
    "hood": 7415,
    "dragoons": 28069,
    "wrestler": 10706,
    "robbins": 18091,
    "chesterfield": 22699,
    "rebounds": 11049,
    "[unused594]": 599,
    "marxist": 15511,
    "several": 2195,
    "sucker": 26476,
    "elder": 6422,
    "raider": 27826,
    "delight": 12208,
    "fished": 26281,
    "1717": 27525,
    "surveying": 19654,
    "tequila": 26791,
    "custody": 9968,
    "dyke": 22212,
    "pose": 13382,
    "255": 20637,
    "##ection": 18491,
    "##lan": 5802,
    "dockyard": 24874,
    "lesbian": 11690,
    "##iary": 17302,
    "eyebrow": 9522,
    "knowing": 4209,
    "superstructure": 28391,
    "##ovich": 12303,
    "schumacher": 22253,
    "butcher": 14998,
    "billings": 26124,
    "##uity": 18518,
    "based": 2241,
    "belinda": 24574,
    "dick": 5980,
    "disturbance": 16915,
    "tandem": 18231,
    "periphery": 23275,
    "##tler": 25091,
    "##by": 3762,
    "##bang": 25153,
    "incidence": 18949,
    "colombia": 7379,
    "1929": 4612,
    "rushed": 6760,
    "beau": 17935,
    "kayla": 26491,
    "pol": 14955,
    "backseat": 19978,
    "who": 2040,
    "essay": 9491,
    "##za": 4143,
    "nazareth": 27192,
    "shelby": 15294,
    "hostel": 21071,
    "ventured": 20510,
    "neighborhoods": 11681,
    "sv": 17917,
    "##pressing": 24128,
    "उ": 1313,
    "decorated": 7429,
    "beads": 17530,
    "stamford": 22469,
    "##ʒ": 29704,
    "loyalty": 9721,
    "comedy": 4038,
    "absently": 21284,
    "belgian": 6995,
    "##du": 8566,
    "boards": 7923,
    "##unced": 22392,
    "vlad": 19163,
    "key": 3145,
    "##¬": 29655,
    "270": 13756,
    "consult": 23363,
    "##pc": 15042,
    "processor": 13151,
    "channel": 3149,
    "dwelling": 13160,
    "groningen": 29070,
    "chateau": 11874,
    "cyclist": 14199,
    "deadline": 15117,
    "##iah": 12215,
    "kurdish": 15553,
    "house": 2160,
    "sleek": 21185,
    "bicycles": 21066,
    "boat": 4049,
    "worry": 4737,
    "1664": 28485,
    "copenhagen": 9664,
    "kazakh": 25907,
    "outing": 26256,
    "regimes": 25228,
    "##vary": 21639,
    "##ist": 2923,
    "verbal": 12064,
    "##rral": 24988,
    "skills": 4813,
    "banded": 25264,
    "visas": 24487,
    "adapting": 25357,
    "resembling": 15525,
    "starters": 29400,
    "zhang": 9327,
    "[unused24]": 25,
    "##nie": 8034,
    "食": 1978,
    "##berto": 21201,
    "##mler": 18602,
    "lebanon": 8341,
    "knitting": 26098,
    "1791": 14362,
    "chairs": 8397,
    "lurched": 21977,
    "##roving": 22046,
    "##linson": 25051,
    "hid": 11041,
    "citizenship": 9068,
    "nippon": 19364,
    "collapsed": 7798,
    "wrestling": 4843,
    "contestants": 10584,
    "[unused302]": 307,
    "annapolis": 24889,
    "pardon": 14933,
    "stairway": 21952,
    "id": 8909,
    "auditions": 21732,
    "nap": 18996,
    "cutter": 16343,
    "tome": 21269,
    "hellenic": 23122,
    "tightening": 18711,
    "mumbled": 11567,
    "crowe": 25657,
    "##ens": 6132,
    "302": 22060,
    "gaul": 26522,
    "[unused311]": 316,
    "南": 1785,
    "nasser": 26099,
    "[unused2]": 3,
    "bra": 11655,
    "±": 1081,
    "spartan": 20670,
    "##pf": 14376,
    "clauses": 24059,
    "##sei": 20240,
    "mischievous": 25723,
    "[unused583]": 588,
    "arabian": 13771,
    "concludes": 14730,
    "##内": 30299,
    "##ʳ": 29708,
    "jose": 4560,
    "signing": 6608,
    "chanting": 22417,
    "[unused55]": 56,
    "castle": 3317,
    "district": 2212,
    "joshua": 9122,
    "安": 1820,
    "disasters": 18665,
    "harshly": 21052,
    "yunnan": 21607,
    "##cable": 21170,
    "eighty": 12021,
    "travellers": 19284,
    "257": 24368,
    "derives": 12153,
    "findings": 9556,
    "stakeholders": 22859,
    "[unused585]": 590,
    "##press": 20110,
    "characterised": 17253,
    "##ᄀ": 29991,
    "##num": 19172,
    "applause": 20737,
    "kitchen": 3829,
    "laguna": 18169,
    "##ans": 6962,
    "disguised": 17330,
    "sweep": 11740,
    "##av": 11431,
    "fallout": 23902,
    "[unused660]": 665,
    "##inkles": 28562,
    "314": 26257,
    "seminary": 8705,
    "notoriety": 23215,
    "##tier": 17579,
    "protector": 16167,
    "barrie": 24953,
    "##mmon": 24521,
    "albanian": 9408,
    "useful": 6179,
    "doctoral": 11316,
    "ownership": 6095,
    "##tori": 29469,
    "belt": 5583,
    "rainer": 28035,
    "poll": 8554,
    "curious": 8025,
    "chronic": 11888,
    "theatre": 3004,
    "##rwood": 20941,
    "jc": 29175,
    "disco": 12532,
    "##rva": 19146,
    "hampton": 11615,
    "brigade": 4250,
    "rodney": 13898,
    "emission": 15760,
    "prompting": 15870,
    "gardener": 19785,
    "deputies": 11964,
    "notion": 9366,
    "heck": 17752,
    "boarded": 17383,
    "##ŋ": 29673,
    "wilmington": 17025,
    "gaelic": 11196,
    "niall": 21889,
    "146": 16333,
    "outlet": 13307,
    "fall": 2991,
    "atkins": 21087,
    "mischief": 25166,
    "soto": 22768,
    "hive": 26736,
    "douglass": 27485,
    "weimar": 20695,
    "satire": 18312,
    "##lah": 14431,
    "1940s": 7675,
    "lucknow": 23571,
    "##dia": 9032,
    "devices": 5733,
    "northwards": 27592,
    "pregnancy": 10032,
    "kilda": 22633,
    "responsive": 26651,
    "suspension": 8636,
    "##bah": 24206,
    "√": 1600,
    "specialised": 17009,
    "mi": 2771,
    "laszlo": 28226,
    "erased": 23516,
    "slaughter": 14574,
    "moses": 9952,
    "space": 2686,
    "##на": 19865,
    "trades": 14279,
    "russian": 2845,
    "settings": 10906,
    "olsen": 18997,
    "centimetres": 13935,
    "policies": 6043,
    "resisted": 13335,
    "distracted": 11116,
    "hire": 10887,
    "sights": 15925,
    "vertigo": 28246,
    "revealing": 8669,
    "equations": 11380,
    "metric": 12046,
    "hope": 3246,
    "moral": 7191,
    "ᶠ": 1512,
    "trombone": 13914,
    "watching": 3666,
    "##ired": 27559,
    "lie": 4682,
    "characterization": 23191,
    "helene": 20149,
    "tyler": 7482,
    "grabbing": 9775,
    "[unused904]": 909,
    "umpire": 20887,
    "incomplete": 12958,
    "sheep": 8351,
    "directional": 20396,
    "##zman": 24340,
    "sportsman": 27168,
    "delaying": 29391,
    "##dle": 10362,
    "wider": 7289,
    "share": 3745,
    "poles": 10567,
    "##ding": 4667,
    "##cen": 27524,
    "##ffey": 24513,
    "deposits": 10042,
    "streams": 9199,
    "##ssel": 21218,
    "manually": 21118,
    "plant": 3269,
    "mini": 7163,
    "competence": 22219,
    "##ez": 9351,
    "cisco": 26408,
    "ᵢ": 1507,
    "##lius": 15513,
    "cal": 10250,
    "aggressively": 24663,
    "##rae": 16652,
    "encountered": 8567,
    "##umb": 25438,
    "harmless": 19741,
    "##recht": 28109,
    "waste": 5949,
    "calculated": 10174,
    "##ening": 7406,
    "labelled": 18251,
    "flea": 26735,
    "illuminating": 27816,
    "legitimacy": 22568,
    "1900s": 16430,
    "abel": 16768,
    "[unused294]": 299,
    "transit": 6671,
    "resource": 7692,
    "[unused374]": 379,
    "maps": 7341,
    "emptied": 21764,
    "meaningless": 25120,
    "##花": 30466,
    "pantry": 27796,
    "##gonal": 20028,
    "limo": 23338,
    "geoff": 14915,
    "uncles": 27328,
    "##sberg": 11711,
    "simpler": 16325,
    "ul": 17359,
    "extraction": 14676,
    "##י": 29796,
    "curiously": 16484,
    "lithuania": 9838,
    "1882": 7131,
    "overview": 19184,
    "psalm": 22728,
    "glands": 23340,
    "civic": 8388,
    "palatinate": 18990,
    "defence": 4721,
    "mu": 14163,
    "mueller": 26774,
    "formed": 2719,
    "denton": 23906,
    "prussian": 10734,
    "join": 3693,
    "mum": 12954,
    "##gli": 25394,
    "pedestrians": 24946,
    "each": 2169,
    "slopes": 10314,
    "scooped": 20804,
    "comes": 3310,
    "ˤ": 1154,
    "arena": 5196,
    "artisans": 26818,
    "horticultural": 26235,
    "analyzed": 16578,
    "阝": 1970,
    "[unused568]": 573,
    "break": 3338,
    "chief": 2708,
    "ᵖ": 1504,
    "ᴬ": 1490,
    "##apes": 29040,
    "kendrick": 25341,
    "##rra": 11335,
    "dl": 21469,
    "janet": 9965,
    "stevie": 17458,
    "kirk": 11332,
    "gen": 8991,
    "fatalities": 20871,
    "291": 27173,
    "##₁": 11871,
    "1943": 3826,
    "departure": 6712,
    "189": 20500,
    "ecstasy": 19069,
    "jays": 18930,
    "strip": 6167,
    "##ame": 14074,
    "worth": 4276,
    "scales": 9539,
    "brand": 4435,
    "ग": 1317,
    "parasites": 23996,
    "herrera": 23527,
    "dimensional": 8789,
    "pains": 20398,
    "drastic": 23956,
    "campaigned": 16196,
    "imposing": 16625,
    "comrades": 19033,
    "oval": 9242,
    "unions": 9209,
    "celebrating": 12964,
    "1831": 10937,
    "##ingdon": 29138,
    "trident": 26515,
    "rippled": 26862,
    "dayton": 14700,
    "unpleasant": 16010,
    "##uming": 24270,
    "##22": 19317,
    "widening": 17973,
    "magnum": 19691,
    "noelle": 22336,
    "floods": 14295,
    "##8": 2620,
    "must": 2442,
    "responsibilities": 10198,
    "incorrect": 16542,
    "##yler": 20853,
    "xii": 14371,
    "aquatic": 13582,
    "experimented": 20918,
    "lass": 27333,
    "##ize": 4697,
    "##uda": 14066,
    "aperture": 18892,
    "∇": 1595,
    "##quel": 22197,
    "releasing": 8287,
    "##方": 30389,
    "suddenly": 3402,
    "##uni": 19496,
    "facing": 5307,
    "[unused367]": 372,
    "stationary": 17337,
    "##ogan": 21131,
    "audit": 15727,
    "widespread": 6923,
    "##optera": 25324,
    "cupping": 25076,
    "dreams": 5544,
    "politically": 10317,
    "nell": 20970,
    "splashed": 22055,
    "1600": 14883,
    "##aia": 27131,
    "poppy": 19745,
    "book": 2338,
    "##আ": 29884,
    "breeders": 20823,
    "adrian": 7918,
    "parachute": 13561,
    "lambert": 12838,
    "1794": 13199,
    "bombing": 8647,
    "wetlands": 16630,
    "##lb": 20850,
    "##ror": 29165,
    "pseudo": 18404,
    "upgrading": 25925,
    "en": 4372,
    "valor": 27314,
    "phase": 4403,
    "paisley": 23321,
    "namely": 8419,
    "##wo": 12155,
    "1723": 26621,
    "near": 2379,
    "##ar": 2906,
    "casualties": 8664,
    "##ave": 10696,
    "regular": 3180,
    "duval": 23929,
    "flood": 7186,
    "devised": 14917,
    "assessing": 20077,
    "fragile": 13072,
    "greta": 26111,
    "plaza": 8232,
    "##works": 9316,
    "alzheimer": 21901,
    "buenos": 9204,
    "swell": 18370,
    "[unused992]": 997,
    "naga": 26539,
    "taught": 4036,
    "whistled": 26265,
    "drinks": 8974,
    "geography": 10505,
    "##―": 30053,
    "barons": 21487,
    "exiles": 27127,
    "parry": 20803,
    "##amen": 27245,
    "origin": 4761,
    "[unused514]": 519,
    "##zu": 9759,
    "1935": 4437,
    "stabbed": 13263,
    "gunshot": 22077,
    "okinawa": 15052,
    "[unused623]": 628,
    "espn": 10978,
    "accumulation": 20299,
    "##cek": 25368,
    "conservatoire": 29233,
    "cease": 13236,
    "visited": 4716,
    "cocoa": 22940,
    "transparency": 16987,
    "import": 12324,
    "[unused496]": 501,
    "wellness": 25860,
    "dominic": 11282,
    "drama": 3689,
    "mir": 14719,
    "bot": 28516,
    "rebels": 8431,
    "##ories": 18909,
    "beneath": 4218,
    "ravaged": 25537,
    "[unused905]": 910,
    "confess": 18766,
    "ions": 15956,
    "latvian": 14698,
    "vance": 16672,
    "ives": 23945,
    "comparison": 7831,
    "nationalism": 14594,
    "gi": 21025,
    "adapt": 15581,
    "graves": 9729,
    "idea": 2801,
    "##phile": 24862,
    "neon": 16231,
    "force": 2486,
    "##wil": 29602,
    "increased": 3445,
    "antagonist": 17379,
    "corsica": 27047,
    "1808": 13040,
    "##iating": 15370,
    "promising": 10015,
    "barbara": 6437,
    "outright": 13848,
    "brutality": 24083,
    "[unused545]": 550,
    "nash": 10594,
    "vikram": 29063,
    "frail": 25737,
    "##vor": 14550,
    "intended": 3832,
    "aurora": 13158,
    "cooperate": 17654,
    "aquitaine": 24973,
    "pines": 17527,
    "feared": 8615,
    "##ons": 5644,
    "bud": 13007,
    "tumbled": 18303,
    "dependence": 18642,
    "likely": 3497,
    "[unused252]": 257,
    "110": 7287,
    "coat": 5435,
    "tidal": 15065,
    "##ן": 29802,
    "complimented": 27175,
    "jersey": 3933,
    "shuddered": 13937,
    "downstairs": 10025,
    "devon": 7614,
    "measures": 5761,
    "daylight": 11695,
    "experimentation": 21470,
    "ம": 1389,
    "raymond": 7638,
    "[unused249]": 254,
    "##学": 30343,
    "##♯": 30154,
    "lansing": 22304,
    "praising": 15838,
    "seamen": 28671,
    "u2": 23343,
    "chilling": 27017,
    "optical": 9380,
    "sausage": 24165,
    "fit": 4906,
    "##hem": 29122,
    "breuning": 18177,
    "convened": 19596,
    "draught": 25349,
    "ethics": 9615,
    "##tance": 26897,
    "pollution": 10796,
    "hamlets": 21631,
    "hall": 2534,
    "grange": 18203,
    "significance": 7784,
    "grimes": 24865,
    "basic": 3937,
    "patriotic": 14314,
    "peeling": 28241,
    "##vious": 24918,
    "sorted": 19616,
    "1912": 4878,
    "370": 16444,
    "##jit": 18902,
    "laboratory": 5911,
    "##ures": 14900,
    "christina": 12657,
    "slaves": 7179,
    "[unused396]": 401,
    "monks": 9978,
    "craters": 27561,
    "pratt": 13208,
    "##ying": 14147,
    "sanchez": 10568,
    "romantic": 6298,
    "##cm": 27487,
    "snuggled": 26867,
    "##grounds": 28951,
    "cautious": 17145,
    "##ゆ": 30209,
    "valiant": 24329,
    "influences": 8092,
    "[unused872]": 877,
    "thesis": 9459,
    "mao": 15158,
    "parentheses": 27393,
    "abuse": 6905,
    "visiting": 5873,
    "##ग": 29853,
    "##nsis": 11745,
    "epidemic": 16311,
    "anguish": 21782,
    "##sta": 9153,
    "recorded": 2680,
    "justified": 15123,
    "##row": 10524,
    "broadway": 5934,
    "fetch": 18584,
    "quincy": 16141,
    "##hora": 16977,
    "urbana": 27929,
    "##ische": 13719,
    "288": 24841,
    "##’": 30056,
    "sounding": 9391,
    "ending": 4566,
    "dated": 6052,
    "nationalities": 24904,
    "##zog": 28505,
    "fountain": 9545,
    "##ules": 16308,
    "##cta": 25572,
    "millennium": 10144,
    "petty": 11612,
    "impoverished": 25488,
    "tn": 28286,
    "##ᄎ": 30001,
    "drifting": 15013,
    "an": 2019,
    "importantly": 14780,
    "cn": 27166,
    "ambassadors": 20986,
    "neighbours": 14754,
    "freelance": 15919,
    "##rov": 12298,
    "163": 17867,
    "ᅥ": 1472,
    "conducting": 9283,
    "interacting": 21935,
    "є": 1212,
    "earth": 3011,
    "devils": 13664,
    "ign": 16270,
    "phillips": 8109,
    "930": 29359,
    "31": 2861,
    "deeply": 6171,
    "aerodynamic": 28033,
    "emperors": 19655,
    "dominique": 18165,
    "ignore": 8568,
    "bridget": 19218,
    "tournament": 2977,
    "valve": 10764,
    "##wich": 12414,
    "##tangled": 27898,
    "carter": 5708,
    "nod": 7293,
    "##lary": 28221,
    "becomes": 4150,
    "silver": 3165,
    "grey": 4462,
    "erin": 11781,
    "milne": 24377,
    "refrigerator": 18097,
    "oil": 3514,
    "anastasia": 19447,
    "du": 4241,
    "biographical": 16747,
    "winnipeg": 11093,
    "nay": 29349,
    "##per": 4842,
    "cigarette": 9907,
    "faa": 17032,
    "1837": 9713,
    "inventor": 12235,
    "##ט": 29795,
    "sided": 11536,
    "ball": 3608,
    "applicants": 17362,
    "##rada": 28510,
    "奈": 1814,
    "##fed": 25031,
    "[unused350]": 355,
    "##ass": 12054,
    "brighter": 16176,
    "tract": 12859,
    "pathogen": 26835,
    "santa": 4203,
    "motorcycle": 9055,
    "waves": 5975,
    "motel": 14901,
    "ramp": 13276,
    "uncertainty": 12503,
    "clubhouse": 22067,
    "ding": 22033,
    "scraping": 23704,
    "sharma": 14654,
    "1800": 9807,
    "daily": 3679,
    "[unused953]": 958,
    "1781": 16788,
    "mixtape": 18713,
    "##bread": 27035,
    "westward": 15165,
    "pronouns": 26028,
    "mv": 19842,
    "aforementioned": 17289,
    "##film": 23665,
    "dat": 23755,
    "س": 1282,
    "unused": 15171,
    "defeated": 3249,
    "disclosure": 19380,
    "##rdan": 26992,
    "##aceae": 18339,
    "bowed": 11489,
    "daring": 15236,
    "below": 2917,
    "vibe": 21209,
    "##hand": 11774,
    "wolves": 8588,
    "reasoning": 13384,
    "codes": 9537,
    "23rd": 13928,
    "extending": 8402,
    "eater": 28496,
    "isles": 14195,
    "nelly": 29498,
    "##kov": 7724,
    "vs": 5443,
    "fulfilled": 16829,
    "propellers": 23405,
    "##ika": 7556,
    "requirement": 9095,
    "治": 1900,
    "totaled": 23596,
    "part": 2112,
    "checking": 9361,
    "194": 19955,
    "##tum": 11667,
    "deploy": 21296,
    "commonly": 4141,
    "gibraltar": 12272,
    "moines": 23286,
    "117": 12567,
    "meadows": 13524,
    "parishes": 11600,
    "hindi": 9269,
    "##fia": 22749,
    "vii": 8890,
    "##sty": 21756,
    "flanked": 15874,
    "##ario": 16843,
    "bliss": 13670,
    "colleague": 11729,
    "playable": 16854,
    "wendell": 24526,
    "bordeaux": 16384,
    "shaping": 20300,
    "lunar": 11926,
    "##uria": 27703,
    "##მ": 29984,
    "collectors": 14256,
    "laptop": 12191,
    "roadway": 18799,
    "mars": 7733,
    "losers": 23160,
    "restrictive": 25986,
    "##─": 30142,
    "##ards": 18117,
    "##cot": 24310,
    "engined": 21235,
    "herself": 2841,
    "parties": 4243,
    "##weiler": 22384,
    "1957": 3890,
    "133": 14506,
    "1996": 2727,
    "using": 2478,
    "司": 1791,
    "sharpened": 26694,
    "##@": 29633,
    "⟩": 1630,
    "hill": 2940,
    "severely": 8949,
    "intimate": 10305,
    "norway": 5120,
    "oversee": 17467,
    "morals": 25288,
    "1838": 9931,
    "thumped": 28963,
    "phones": 11640,
    "airfield": 9087,
    "##lins": 24412,
    "maui": 28566,
    "metal": 3384,
    "cats": 8870,
    "reverend": 10547,
    "areas": 2752,
    "orb": 19607,
    "symbolic": 12613,
    "##r": 2099,
    "##示": 30449,
    "abdominal": 21419,
    "worrying": 15366,
    "##win": 10105,
    "eels": 29317,
    "speak": 3713,
    "icelandic": 14024,
    "radioactive": 17669,
    "guam": 16162,
    "sign": 3696,
    "##新": 30388,
    "execution": 7781,
    "sims": 18135,
    "61": 6079,
    "garland": 17017,
    "bei": 21388,
    "dumont": 25830,
    "moment": 2617,
    "##elles": 22869,
    "arterial": 25543,
    "wrocław": 25160,
    "watery": 28259,
    "firearms": 13780,
    "##dor": 7983,
    "##lford": 23211,
    "##roy": 13238,
    "translations": 11913,
    "[unused197]": 202,
    "boost": 12992,
    "catalina": 22326,
    "harriet": 14207,
    "1685": 25053,
    "gas": 3806,
    "dried": 9550,
    "reintroduced": 28263,
    "rejection": 13893,
    "##wski": 10344,
    "長": 1967,
    "##pe": 5051,
    "##arium": 17285,
    "clinic": 9349,
    "##hiro": 18334,
    "issues": 3314,
    "prevention": 9740,
    "[unused707]": 712,
    "humanist": 24464,
    "##lten": 29005,
    "tian": 23401,
    "infantry": 3939,
    "yarmouth": 28792,
    "##yas": 16303,
    "blanket": 8768,
    "authorized": 9362,
    "##:": 29627,
    "prompt": 25732,
    "pearce": 19560,
    "explains": 7607,
    "enclosed": 10837,
    "sparta": 21251,
    "muted": 22124,
    "pretend": 9811,
    "##stream": 21422,
    "ju": 18414,
    "lucie": 28831,
    "191": 19871,
    "lisa": 7059,
    "##flight": 28968,
    "comics": 5888,
    "##₅": 30081,
    "hosts": 6184,
    "roundabout": 22831,
    "sons": 4124,
    "sloan": 19024,
    "merry": 12831,
    "sexuality": 13798,
    "layton": 23103,
    "hopping": 26397,
    "directing": 9855,
    "upbringing": 24615,
    "##tson": 25656,
    "வ": 1394,
    "550": 13274,
    "hooded": 21592,
    "latvia": 12429,
    "mechanized": 23387,
    "##と": 30192,
    "##ᄏ": 30002,
    "،": 1268,
    "linden": 22066,
    "##会": 30289,
    "advisory": 7319,
    "##85": 27531,
    "beams": 13110,
    "##ches": 8376,
    "marty": 12578,
    "[unused936]": 941,
    "rejoin": 25261,
    "unitary": 22127,
    "625": 22810,
    "lineup": 10515,
    "raided": 18784,
    "↔": 1587,
    "updated": 7172,
    "正": 1888,
    "apartheid": 17862,
    "stephane": 26624,
    "peek": 19043,
    "fleet": 4170,
    "[unused155]": 160,
    "##sper": 17668,
    "amenities": 19870,
    "[unused356]": 361,
    "transferred": 4015,
    "exiting": 22371,
    "cruises": 23986,
    "##try": 11129,
    "laying": 10201,
    "##mmer": 15810,
    "whose": 3005,
    "tufts": 25252,
    "retaliation": 18695,
    "newark": 12948,
    "southernmost": 21787,
    "城": 1804,
    "seaside": 20276,
    "huff": 21301,
    "প": 1367,
    "caves": 10614,
    "##ali": 11475,
    "mccoy": 16075,
    "##mond": 11442,
    "erratic": 24122,
    "holt": 12621,
    "bel": 19337,
    "combined": 4117,
    "offer": 3749,
    "coughing": 21454,
    "herds": 28822,
    "mattered": 13836,
    "dishes": 10447,
    "accommodations": 26167,
    "dustin": 24337,
    "##roved": 26251,
    "dispatched": 14501,
    "ware": 16283,
    "##yle": 12844,
    "constituency": 5540,
    "walker": 5232,
    "syriac": 24109,
    "bouncing": 16361,
    "slope": 9663,
    "math": 8785,
    "dismiss": 19776,
    "garion": 12523,
    "efforts": 4073,
    "austro": 16951,
    "stein": 14233,
    "##mack": 26945,
    "1985": 3106,
    "##dt": 11927,
    "stigma": 26453,
    "##amps": 25167,
    "##sily": 26863,
    "forming": 5716,
    "pendant": 23152,
    "hoffman": 15107,
    "ک": 1304,
    "decree": 10037,
    "##fle": 21031,
    "prose": 12388,
    "aquino": 24183,
    "petroleum": 11540,
    "yugoslavia": 8936,
    "prices": 7597,
    "protagonists": 21989,
    "[unused935]": 940,
    "demanded": 6303,
    "burma": 11050,
    "##clusive": 23633,
    "trojan": 23445,
    "##unds": 26698,
    "1769": 20663,
    "shoulder": 3244,
    "wilbur": 26151,
    "blackmail": 25044,
    "diaries": 18707,
    "revolves": 19223,
    "##₎": 30088,
    "##dick": 24066,
    "disturb": 22995,
    "##²": 10701,
    "avoid": 4468,
    "basalt": 26343,
    "valid": 9398,
    "prepared": 4810,
    "thieves": 15862,
    "184": 19681,
    "firth": 25138,
    "##fied": 10451,
    "rivera": 14043,
    "youthful": 22446,
    "reconciled": 28348,
    "##nam": 13129,
    "secondary": 3905,
    "sunshine": 9609,
    "142": 16087,
    "132": 14078,
    "tamil": 6008,
    "##va": 3567,
    "י": 1250,
    "fremantle": 20358,
    "intention": 6808,
    "outlets": 11730,
    "estonia": 10692,
    "960": 26637,
    "remembers": 17749,
    "##eman": 16704,
    "ᵥ": 1510,
    "residency": 14079,
    "asserts": 19514,
    "deepest": 17578,
    "##ulously": 21227,
    "##gau": 20420,
    "hughes": 8099,
    "[unused491]": 496,
    "squadrons": 11435,
    "##raine": 26456,
    "roche": 20162,
    "recounts": 23412,
    "portraits": 9668,
    "90s": 17233,
    "peruvian": 15432,
    "##ht": 11039,
    "##80": 17914,
    "rudder": 24049,
    "applicable": 12711,
    "##wani": 29092,
    "darmstadt": 28381,
    "##ors": 5668,
    "apache": 15895,
    "swollen": 13408,
    "teamed": 12597,
    "м": 1191,
    "merger": 7660,
    "##उ": 29849,
    "preserves": 18536,
    "combatants": 26622,
    "##yya": 19903,
    "farmhouse": 16870,
    "toss": 10055,
    "##ife": 29323,
    "philosopher": 9667,
    "descending": 15127,
    "##sr": 21338,
    "[unused330]": 335,
    "kincaid": 24510,
    "pop": 3769,
    "##nesia": 21509,
    "kimball": 26659,
    "thailand": 6504,
    "scientist": 7155,
    "intrigued": 18896,
    "spd": 23772,
    "##wine": 21924,
    "repeats": 17993,
    "festival": 2782,
    "georgetown": 12982,
    "logistical": 28961,
    "says": 2758,
    "[unused314]": 319,
    "ego": 13059,
    "##val": 10175,
    "noel": 10716,
    "greed": 22040,
    "[unused827]": 832,
    "clearing": 8430,
    "estadio": 14143,
    "triangles": 27189,
    "overlapping": 20567,
    "bibliography": 24751,
    "suspect": 8343,
    "loretta": 28493,
    "##平": 30365,
    "analytical": 17826,
    "##ito": 9956,
    "[unused527]": 532,
    "stewart": 5954,
    "##kai": 11151,
    "##鈴": 30491,
    "ছ": 1357,
    "##itated": 15198,
    "##rage": 24449,
    "##rrell": 14069,
    "manpower": 22039,
    "golden": 3585,
    "assuming": 10262,
    "shiny": 12538,
    "##ה": 29128,
    "blockade": 15823,
    "∘": 1599,
    "99": 5585,
    "##zed": 5422,
    "andover": 29463,
    "##fen": 18940,
    "##rim": 20026,
    "ة": 1272,
    "detail": 6987,
    "betting": 19244,
    "[unused131]": 136,
    "##hdi": 22960,
    "##hammer": 19742,
    "darkly": 27148,
    "viruses": 18191,
    "##ₘ": 30096,
    "qualifier": 10981,
    "203": 18540,
    "brute": 26128,
    "libyan": 19232,
    "across": 2408,
    "shale": 18488,
    "##van": 6212,
    "disadvantage": 20502,
    "adverse": 15316,
    "collin": 22180,
    "##ნ": 29985,
    "colors": 6087,
    "[unused8]": 9,
    "##ually": 28488,
    "yahoo": 20643,
    "##vres": 24790,
    "wta": 21925,
    "stroking": 14943,
    "tierney": 26198,
    "struggling": 8084,
    "yamamoto": 28318,
    "booster": 23715,
    "া": 1378,
    "obsolete": 15832,
    "##uez": 29488,
    "##thi": 15222,
    "algebraic": 17390,
    "##hawks": 16043,
    "[unused188]": 193,
    "clinton": 7207,
    "rag": 17768,
    "uruguay": 11724,
    "grasped": 15517,
    "albans": 26311,
    "tourism": 6813,
    "thrust": 7400,
    "##ntial": 19909,
    "logged": 26618,
    "##rat": 8609,
    "oman": 16640,
    "socket": 22278,
    "flavors": 26389,
    "pun": 26136,
    "owens": 14824,
    "accommodation": 11366,
    "[unused54]": 55,
    "determine": 5646,
    "firing": 7493,
    "privatization": 23966,
    "prohibition": 13574,
    "1861": 6863,
    "rf": 21792,
    "hoax": 28520,
    "##nz": 14191,
    "cases": 3572,
    "line": 2240,
    "feel": 2514,
    "terrorism": 10130,
    "##bant": 29604,
    "respecting": 27818,
    "deposited": 14140,
    "nagar": 16395,
    "knockout": 11369,
    "uploaded": 21345,
    "ט": 1249,
    "heron": 22914,
    "also": 2036,
    "ק": 1264,
    "doorstep": 26581,
    "レ": 1734,
    "mahmud": 25886,
    "granville": 24926,
    "bleak": 21657,
    "fringe": 13548,
    "hallmark": 25812,
    "hero": 5394,
    "exhibits": 10637,
    "assure": 14306,
    "meditation": 13804,
    "[unused285]": 290,
    "tong": 15740,
    "thai": 7273,
    "boon": 23264,
    "bandages": 27993,
    "##hood": 9021,
    "cerro": 25498,
    "##gles": 17125,
    "islamist": 27256,
    "posted": 6866,
    "earthly": 29520,
    "vomit": 23251,
    "[unused320]": 325,
    "##lena": 20844,
    "©": 1075,
    "murmur": 20227,
    "dialed": 21300,
    "sg": 22214,
    "##zal": 16739,
    "slavery": 8864,
    "enveloped": 25407,
    "stamps": 12133,
    "149": 17332,
    "goodwill": 22875,
    "##kat": 24498,
    "##written": 15773,
    "faye": 19243,
    "##ᵀ": 30031,
    "##dles": 27822,
    "obtained": 4663,
    "financed": 13790,
    "ps": 8827,
    "gasoline": 13753,
    "bright": 4408,
    "prized": 25695,
    "ய": 1390,
    "benito": 23595,
    "fluttering": 25001,
    "waited": 4741,
    "detailing": 17555,
    "authentic": 14469,
    "riddle": 21834,
    "hee": 18235,
    "splinter": 27546,
    "##ei": 7416,
    "կ": 1227,
    "digital": 3617,
    "##yev": 17240,
    "caine": 19881,
    "handheld": 27291,
    "##night": 15864,
    "##egorical": 27203,
    "##rks": 19987,
    "[unused672]": 677,
    "##hiko": 22204,
    "sage": 10878,
    "comune": 21130,
    "overheard": 20443,
    "pere": 23976,
    "contrasting": 22133,
    "liam": 8230,
    "beyonce": 20773,
    "##lal": 13837,
    "##4th": 26724,
    "gerry": 14926,
    "breakout": 25129,
    "##⁄₄": 27392,
    "1a": 20720,
    "baseball": 3598,
    "##encies": 15266,
    "conservation": 5680,
    "betty": 9306,
    "pau": 29025,
    "invite": 13260,
    "##ধ": 29901,
    "vacated": 15348,
    "caucus": 13965,
    "stephens": 15037,
    "ernie": 14637,
    "restore": 9239,
    "zeus": 15208,
    "drink": 4392,
    "inspection": 10569,
    "perpetual": 18870,
    "song": 2299,
    "##qu": 28940,
    "##原": 30313,
    "brains": 14332,
    "wearing": 4147,
    "##bas": 22083,
    "reelection": 17648,
    "annexation": 18985,
    "##©": 29652,
    "settling": 9853,
    "steadily": 11328,
    "athletics": 6482,
    "⺩": 1632,
    "choice": 3601,
    "##yar": 13380,
    "##mx": 22984,
    "ye": 6300,
    "rita": 11620,
    "##我": 30381,
    "mysteriously": 29239,
    "⊗": 1613,
    "##rzburg": 29136,
    "##ratic": 23671,
    "couple": 3232,
    "inhibitor": 24054,
    "##thor": 27844,
    "quarterback": 9074,
    "haired": 10681,
    "bazaar": 22774,
    "subsidiaries": 20178,
    "economic": 3171,
    "##bour": 25127,
    "##‑": 30049,
    "dammit": 20878,
    "embodied": 25405,
    "wonderful": 6919,
    "##rked": 19849,
    "##mbre": 19908,
    "1989": 2960,
    "##р": 16856,
    "loved": 3866,
    "saddam": 24111,
    "recognizing": 14622,
    "##dating": 16616,
    "guard": 3457,
    "crops": 8765,
    "##olio": 29401,
    "focusing": 7995,
    "rematch": 18229,
    "impaired": 18234,
    "tombstone": 26671,
    "syria": 7795,
    "commemorated": 19131,
    "assignments": 14799,
    "[unused926]": 931,
    "[unused508]": 513,
    "boiling": 16018,
    "gaulle": 28724,
    "hydra": 26018,
    "##xley": 20959,
    "arthritis": 27641,
    "canyon": 8399,
    "boone": 15033,
    "honor": 3932,
    "centre": 2803,
    "##tein": 9589,
    "annette": 22521,
    "##ђ": 29758,
    "states": 2163,
    "accepting": 10564,
    "verve": 29230,
    "lawyers": 9559,
    "##rlin": 19403,
    "lea": 12203,
    "dimitri": 15953,
    "baton": 15302,
    "fatally": 26292,
    "preseason": 20038,
    "displayed": 6913,
    "tristan": 9822,
    "[unused240]": 245,
    "##hil": 19466,
    "display": 4653,
    "curves": 10543,
    "↑": 1584,
    "fowler": 14990,
    "watts": 11042,
    "textbooks": 18841,
    "tensor": 23435,
    "gloves": 11875,
    "##〜": 30171,
    "carla": 17081,
    "symmetric": 19490,
    "goal": 3125,
    "steward": 17946,
    "##'": 29618,
    "malone": 16321,
    "corona": 21887,
    "uk": 2866,
    "1743": 25615,
    "dharma": 20669,
    "##logue": 24277,
    "boss": 5795,
    "plaid": 26488,
    "character": 2839,
    "eccentric": 18080,
    "movies": 5691,
    "exiled": 14146,
    "regaining": 28657,
    "##llah": 18599,
    "##ool": 13669,
    "##riz": 21885,
    "gospel": 8036,
    "mhz": 11413,
    "incense": 28647,
    "[unused739]": 744,
    "lasting": 9879,
    "tunic": 23002,
    "savage": 9576,
    "riverside": 12497,
    "đ": 1102,
    "bumps": 18548,
    "foyer": 16683,
    "##yam": 14852,
    "olympia": 17096,
    "nes": 24524,
    "sanity": 20039,
    "consequences": 8465,
    "anticipating": 26481,
    "saturn": 14784,
    "fluffy": 27036,
    "friedrich": 8896,
    "howl": 22912,
    "wa": 11333,
    "##ケ": 30229,
    "braced": 15515,
    "楊": 1883,
    "adventurer": 29506,
    "ticket": 7281,
    "envoy": 19918,
    "[unused880]": 885,
    "policemen": 19809,
    "artificial": 7976,
    "victim": 6778,
    "##stle": 22516,
    "stare": 6237,
    "##ken": 7520,
    "neil": 6606,
    "pakistani": 9889,
    "inline": 23881,
    "irony": 19728,
    "impressions": 19221,
    "headache": 14978,
    "arousal": 18905,
    "ik": 20912,
    "##pani": 26569,
    "sensors": 13907,
    "trench": 14185,
    "elena": 9060,
    "illusion": 12492,
    "##ก": 29945,
    "flanks": 23547,
    "genetics": 14471,
    "liner": 11197,
    "homo": 24004,
    "version": 2544,
    "tick": 16356,
    "clearance": 14860,
    "sanskrit": 11353,
    "gujarati": 26428,
    "relating": 8800,
    "coral": 11034,
    "##რ": 29987,
    "jets": 9924,
    "schwarz": 29058,
    "transfers": 15210,
    "claude": 8149,
    "infinitely": 25773,
    "##drik": 28730,
    "##erian": 27549,
    "dancers": 10487,
    "[unused383]": 388,
    "awesome": 12476,
    "vent": 18834,
    "spartans": 24293,
    "jockey": 13989,
    "1873": 7612,
    "wi": 15536,
    "##inator": 23207,
    "witches": 12566,
    "##hope": 26441,
    "assignment": 8775,
    "##riam": 25557,
    "differentiated": 24374,
    "triassic": 29529,
    "colonel": 4327,
    "ট": 1359,
    "recess": 28290,
    "alley": 8975,
    "fertility": 17376,
    "plans": 3488,
    "amour": 21518,
    "first": 2034,
    "msc": 23794,
    "mental": 5177,
    "absence": 6438,
    "victorian": 6652,
    "14": 2403,
    "oversees": 22558,
    "doesn": 2987,
    "gore": 13638,
    "clapton": 24705,
    "radiant": 23751,
    "beats": 10299,
    "colliery": 19462,
    "##マ": 30249,
    "dante": 9649,
    "shaky": 15311,
    "reasonable": 9608,
    "fin": 10346,
    "[unused443]": 448,
    "pearson": 12874,
    "worked": 2499,
    "[unused735]": 740,
    "catastrophic": 23546,
    "bunker": 15742,
    "pads": 19586,
    "pointing": 7302,
    "ste": 26261,
    "sectors": 11105,
    "eye": 3239,
    "implementations": 24977,
    "konrad": 22958,
    "gurney": 25061,
    "##utable": 23056,
    "decreed": 28447,
    "opposes": 29158,
    "##星": 30392,
    "英": 1941,
    "##rca": 18992,
    "overly": 15241,
    "modelling": 19518,
    "karel": 28021,
    "utopia": 26425,
    "third": 2353,
    "classics": 10002,
    "##litz": 24725,
    "woody": 13703,
    "guru": 11972,
    "tweed": 26922,
    "reminiscent": 14563,
    "##fin": 16294,
    "niagara": 15473,
    "[unused386]": 391,
    "compared": 4102,
    "guessing": 16986,
    "beirut": 15335,
    "profession": 9518,
    "##ffie": 29055,
    "q": 1053,
    "##oth": 14573,
    "famed": 15607,
    "##人": 30282,
    "volleyball": 7454,
    "##dou": 26797,
    "brandy": 17951,
    "hiroshima": 20168,
    "unbearable": 24257,
    "##pt": 13876,
    "##ioms": 29178,
    "pulmonary": 21908,
    "worcester": 12539,
    "##plane": 11751,
    "represents": 5836,
    "##ues": 15808,
    "let": 2292,
    "##pp": 9397,
    "##qual": 26426,
    "hazel": 14015,
    "ended": 3092,
    "ո": 1232,
    "willingly": 18110,
    "buys": 23311,
    "sixty": 8442,
    "sprint": 9043,
    "cairns": 21731,
    "geek": 29294,
    "awoke": 19179,
    "renovated": 10601,
    "##bedo": 28759,
    "maharashtra": 12434,
    "grab": 6723,
    "debate": 5981,
    "animator": 25132,
    "originating": 14802,
    "metro": 6005,
    "##rum": 6824,
    "laden": 14887,
    "inexpensive": 23766,
    "roberts": 7031,
    "tallest": 13747,
    "##analysis": 25902,
    "##ˈ": 29715,
    "##rangle": 21476,
    "[unused962]": 967,
    "##nted": 14706,
    "indices": 29299,
    "##ld": 6392,
    "[unused299]": 304,
    "ッ": 1711,
    "elements": 3787,
    "squadron": 3704,
    "eireann": 29157,
    "##ect": 22471,
    "coco": 25033,
    "incorporating": 13543,
    "politics": 4331,
    "oils": 20631,
    "orthogonal": 28721,
    "チ": 1710,
    "[unused303]": 308,
    "tampa": 9925,
    "כ": 1252,
    "added": 2794,
    "mage": 17454,
    "publishers": 8544,
    "severed": 16574,
    "marlon": 25861,
    "synthesizer": 13564,
    "typing": 22868,
    "wartime": 12498,
    "diving": 9404,
    "sculpted": 19921,
    "##founded": 21001,
    "wonder": 4687,
    "grew": 3473,
    "wisdom": 9866,
    "ae": 29347,
    "arkansas": 6751,
    "climb": 7105,
    "[unused105]": 110,
    "obstruction": 27208,
    "ivy": 7768,
    "oz": 11472,
    "kathryn": 20484,
    "governmental": 10605,
    "john": 2198,
    "dom": 14383,
    "erebidae": 25875,
    "##alla": 25425,
    "vanilla": 21161,
    "mounds": 19503,
    "townsend": 16139,
    "domestic": 4968,
    "rosa": 9508,
    "2010s": 26817,
    "warmth": 8251,
    "interval": 13483,
    "barred": 15605,
    "bulge": 23708,
    "1667": 27643,
    "slight": 7263,
    "occasionally": 5681,
    "shooter": 13108,
    "[unused481]": 486,
    "southeast": 4643,
    "##志": 30377,
    "moth": 5820,
    "##og": 8649,
    "resonance": 17011,
    "pornographic": 26932,
    "hermes": 24127,
    "gma": 20917,
    "##lous": 15534,
    "medication": 14667,
    "##ison": 10929,
    "hoped": 5113,
    "nuevo": 22250,
    "##poo": 24667,
    "[unused344]": 349,
    "##ink": 19839,
    "dark": 2601,
    "scandinavian": 17660,
    "murdered": 7129,
    "##pipe": 24548,
    "##lings": 11227,
    "confirming": 19195,
    "cbs": 6568,
    "indexed": 25331,
    "requirements": 5918,
    "genius": 11067,
    "padre": 28612,
    "huddersfield": 19715,
    "mystical": 17529,
    "stiff": 10551,
    "##ate": 3686,
    "interned": 26345,
    "appalled": 29279,
    "crush": 10188,
    "verona": 20197,
    "outlaw": 19104,
    "bae": 25818,
    "##athan": 29246,
    "adventist": 25696,
    "decrease": 9885,
    "[unused331]": 336,
    "##gat": 20697,
    "scripts": 14546,
    "din": 11586,
    "props": 24387,
    "montevideo": 22460,
    "##llin": 21202,
    "jimi": 27624,
    "concepts": 8474,
    "kansas": 5111,
    "[unused835]": 840,
    "1783": 15331,
    "##ης": 29155,
    "lime": 14123,
    "##sil": 27572,
    "totaling": 21798,
    "1888": 6690,
    "aisles": 25442,
    "virginia": 3448,
    "##nished": 28357,
    "greenberg": 24190,
    "noun": 15156,
    "koreans": 24651,
    "grafton": 28680,
    "atletico": 16132,
    "rounds": 6241,
    "aids": 8387,
    "##ivating": 17441,
    "chemicals": 12141,
    "wheel": 5217,
    "##fleet": 27657,
    "[unused53]": 54,
    "dock": 8946,
    "sampling": 16227,
    "cooks": 26929,
    "madly": 29179,
    "denial": 14920,
    "industry": 3068,
    "##¿": 29666,
    "ambulance": 10771,
    "rhodes": 10588,
    "shattering": 21797,
    "vale": 10380,
    "faulty": 28927,
    "ticked": 26019,
    "akron": 22735,
    "oppose": 15391,
    "functioned": 20903,
    "stair": 23788,
    "83": 6640,
    "sexes": 21024,
    "##gman": 25494,
    "winthrop": 28974,
    "leicestershire": 20034,
    "haunting": 20161,
    "ambition": 16290,
    "1785": 17262,
    "memoirs": 13251,
    "flawless": 27503,
    "category": 4696,
    "icy": 13580,
    "elvis": 12280,
    "forces": 2749,
    "convinced": 6427,
    "descriptive": 22726,
    "registering": 25719,
    "finished": 2736,
    "mount": 4057,
    "occasional": 8138,
    "##tead": 14565,
    "armies": 8749,
    "emergencies": 26360,
    "arcs": 29137,
    "##gut": 27920,
    "desperate": 7143,
    "##ina": 3981,
    "della": 8611,
    "##ₖ": 30094,
    "playful": 18378,
    "deborah": 15555,
    "guo": 22720,
    "##dun": 27584,
    "pea": 26034,
    "revived": 10570,
    "##ichi": 11319,
    "ira": 11209,
    "[unused687]": 692,
    "■": 1617,
    "carol": 8594,
    "##orne": 23846,
    "buzzing": 20386,
    "##rin": 6657,
    "satisfying": 17087,
    "baroness": 21479,
    "devote": 23313,
    "endless": 10866,
    "##ব": 29904,
    "brno": 28634,
    "inn": 7601,
    "matthews": 12351,
    "notably": 5546,
    "##h": 2232,
    "cupped": 13740,
    "highlighted": 11548,
    "invaders": 17347,
    "##tious": 20771,
    "##sions": 27466,
    "##isation": 6648,
    "##boys": 24916,
    "saxony": 13019,
    "canonical": 18562,
    "equilibrium": 14442,
    "turbines": 17396,
    "flexibility": 16991,
    "cornerback": 26857,
    "downwards": 28457,
    "apron": 20376,
    "buck": 10131,
    "petitioned": 22527,
    "consisting": 5398,
    "docks": 15093,
    "sighing": 19381,
    "##mos": 15530,
    "kobayashi": 28930,
    "[unused536]": 541,
    "##ega": 29107,
    "enlightenment": 16724,
    "claus": 19118,
    "##out": 5833,
    "brightness": 18295,
    "quran": 21288,
    "##stad": 16917,
    "ordnance": 14445,
    "disturbed": 12491,
    "永": 1896,
    "sponsors": 13162,
    "skeletons": 24365,
    "viewpoint": 21386,
    "maiden": 10494,
    "##ety": 27405,
    "##shin": 17426,
    "racer": 14878,
    "removes": 20362,
    "pursuant": 27081,
    "##夏": 30334,
    "wal": 24547,
    "dismantled": 17293,
    "##∩": 30131,
    "angular": 16108,
    "blaming": 24114,
    "##tangle": 23395,
    "thief": 12383,
    "cortes": 22242,
    "sank": 7569,
    "##imo": 16339,
    "bobbie": 27731,
    "[unused152]": 157,
    "scooted": 24289,
    "suites": 19796,
    "gathering": 7215,
    "carly": 18431,
    "chesapeake": 20867,
    "orderly": 23589,
    "hen": 21863,
    "originates": 16896,
    "pants": 6471,
    "##十": 30309,
    "vc": 18315,
    "weather": 4633,
    "sabine": 18578,
    "pronunciation": 15498,
    "heroes": 7348,
    "feat": 8658,
    "holes": 8198,
    "##illo": 10486,
    "##tf": 24475,
    "doing": 2725,
    "separates": 18600,
    "rub": 14548,
    "infections": 15245,
    "##宗": 30347,
    "spanish": 3009,
    "honors": 7836,
    "timor": 19746,
    "vinegar": 29387,
    "paterson": 19162,
    "mikhail": 11318,
    "##a": 2050,
    "stride": 18045,
    "##ɴ": 29690,
    "##bs": 5910,
    "gunmen": 28932,
    "concerns": 5936,
    "drake": 7867,
    "predominantly": 9197,
    "raise": 5333,
    "crystal": 6121,
    "synchronized": 25549,
    "eagerly": 17858,
    "shelly": 28360,
    "fingerprints": 27556,
    "fundamental": 8050,
    "smelled": 9557,
    "##proof": 18907,
    "ang": 17076,
    "##ghi": 28891,
    "numbers": 3616,
    "contributors": 16884,
    "stretching": 10917,
    "1934": 4579,
    "weber": 13351,
    "critics": 4401,
    "flower": 6546,
    "bahadur": 21715,
    "belmont": 17449,
    "manipulate": 17708,
    "mixture": 8150,
    "##ハ": 30244,
    "consecutive": 5486,
    "lacked": 10858,
    "envy": 21103,
    "trunks": 20509,
    "flourish": 24299,
    "reunited": 11653,
    "clarify": 25037,
    "priesthood": 17911,
    "[unused494]": 499,
    "specification": 12827,
    "executed": 6472,
    "fine": 2986,
    "descended": 9287,
    "symphonies": 29355,
    "1764": 21488,
    "dc": 5887,
    "##used": 13901,
    "##tp": 25856,
    "##nds": 18376,
    "##ogy": 15707,
    "prisoners": 5895,
    "capitol": 9424,
    "##cis": 22987,
    "[unused99]": 104,
    "psychedelic": 18147,
    "##vey": 12417,
    "playoffs": 7555,
    "##logy": 6483,
    "holster": 29447,
    "implementing": 14972,
    "##ties": 7368,
    "perpetrators": 27675,
    "##™": 30108,
    "novelty": 21160,
    "目": 1918,
    "psychology": 6825,
    "allied": 6035,
    "vote": 3789,
    "##50": 12376,
    "光": 1770,
    "detention": 12345,
    "ounce": 19471,
    "##grant": 18980,
    "rutland": 27780,
    "menu": 12183,
    "summoned": 11908,
    "scottish": 4104,
    "ต": 1411,
    "##ios": 10735,
    "1848": 7993,
    "healing": 8907,
    "kidd": 25358,
    "privileges": 14310,
    "tour": 2778,
    "##bro": 12618,
    "coating": 18898,
    "dukes": 16606,
    "touchdowns": 10183,
    "##aint": 22325,
    "##log": 21197,
    "climates": 24734,
    "attracting": 15411,
    "kendra": 13812,
    "[unused758]": 763,
    "shaun": 16845,
    "settlements": 7617,
    "[unused242]": 247,
    "electricity": 6451,
    "qur": 23183,
    "most": 2087,
    "honorable": 13556,
    "quarters": 7728,
    "##chev": 16179,
    "preparatory": 13485,
    "##tani": 17681,
    "recall": 9131,
    "romance": 7472,
    "##oles": 29111,
    "phenomena": 13352,
    "##tos": 13122,
    "ua": 25423,
    "##ours": 22957,
    "alvaro": 24892,
    "internally": 16058,
    "shang": 29382,
    "revolutions": 25239,
    "adjunct": 20621,
    "sacks": 14918,
    "##te": 2618,
    "yong": 18999,
    "orchestras": 19505,
    "nam": 15125,
    "transported": 9687,
    "harrington": 19760,
    "curb": 13730,
    "edition": 3179,
    "supervision": 10429,
    "meals": 12278,
    "telegram": 23921,
    "lasts": 16180,
    "reflection": 9185,
    "demand": 5157,
    "395": 24673,
    "threads": 16457,
    "##jan": 8405,
    "joanne": 23459,
    "booked": 17414,
    "##piration": 16781,
    "##司": 30317,
    "expenses": 11727,
    "plump": 26731,
    "[unused868]": 873,
    "exemplified": 28593,
    "schedules": 20283,
    "weekly": 4882,
    "exclusively": 7580,
    "curt": 20099,
    "13th": 6122,
    "frankie": 12784,
    "pensions": 22024,
    "visible": 5710,
    "peers": 12746,
    "ec": 14925,
    "hacked": 28719,
    "flock": 19311,
    "iroquois": 23015,
    "weep": 27874,
    "hartford": 13381,
    "then": 2059,
    "landings": 16805,
    "repertory": 21099,
    "covent": 29456,
    "transportation": 5193,
    "similarity": 14402,
    "amara": 28599,
    "paint": 6773,
    "shared": 4207,
    "##vere": 28943,
    "yanking": 25716,
    "##ƒ": 29675,
    "み": 1678,
    "##dha": 17516,
    "beasts": 15109,
    "domed": 29208,
    "[unused57]": 58,
    "stafford": 15064,
    "chancel": 16482,
    "nobility": 11760,
    "guillaume": 20061,
    "encounter": 8087,
    "vogel": 27063,
    "readily": 12192,
    "extent": 6698,
    "ා": 1408,
    "1904": 5692,
    "eva": 9345,
    "kapoor": 17129,
    "colossal": 29523,
    "ರ": 1401,
    "supermarkets": 26676,
    "intersections": 26540,
    "degree": 3014,
    "##ʔ": 29705,
    "000": 2199,
    "##dya": 25838,
    "##ffy": 16329,
    "straightened": 11168,
    "cub": 21987,
    "rely": 11160,
    "plymouth": 10221,
    "##igny": 26978,
    "beef": 12486,
    "##lic": 10415,
    "日": 1864,
    "recipients": 15991,
    "bark": 11286,
    "generated": 7013,
    "reprinted": 13603,
    "influx": 18050,
    "francs": 24313,
    "##■": 30144,
    "inhaled": 15938,
    "##ount": 21723,
    "masonic": 21152,
    "newspaper": 3780,
    "whispers": 11054,
    "1688": 24082,
    "nationale": 17360,
    "privateer": 26790,
    "bordering": 18299,
    "starboard": 25211,
    "##bner": 29388,
    "instituto": 22596,
    "planted": 8461,
    "##真": 30447,
    "dear": 6203,
    "##hampton": 21946,
    "ljubljana": 21588,
    "anthem": 11971,
    "congratulations": 23156,
    "spear": 12341,
    "adolf": 12500,
    "slavic": 13838,
    "[unused77]": 78,
    "[unused282]": 287,
    "hinduism": 19632,
    "eastwood": 24201,
    "respectable": 19416,
    "bursting": 21305,
    "statistical": 7778,
    "mavericks": 28330,
    "diocesan": 18680,
    "321": 24030,
    "hopeful": 17772,
    "##icides": 22698,
    "##os": 2891,
    "mortimer": 17416,
    "##ය": 29940,
    "atmospheric": 12483,
    "rotting": 22005,
    "hatfield": 26853,
    "ashton": 13772,
    "dade": 27647,
    "[unused644]": 649,
    "bursts": 19239,
    "105": 8746,
    "week": 2733,
    "supporters": 6793,
    "temporary": 5741,
    "incident": 5043,
    "masovian": 23703,
    "afraid": 4452,
    "machines": 6681,
    "[unused575]": 580,
    "recycled": 22207,
    "##hurst": 10510,
    "immortals": 26796,
    "captained": 16041,
    "##kic": 29493,
    "standardization": 28648,
    "##bank": 9299,
    "bean": 14068,
    "chu": 14684,
    "[unused40]": 41,
    "737": 22061,
    "independence": 4336,
    "burger": 15890,
    "##vial": 18660,
    "paved": 12308,
    "years": 2086,
    "[SEP]": 102,
    "strasbourg": 18104,
    "##ا": 25573,
    "felix": 8383,
    "formidable": 18085,
    "minogue": 27736,
    "ronin": 29249,
    "inscribed": 14551,
    "palermo": 18705,
    "cheerfully": 27403,
    "fumbled": 20054,
    "spacious": 22445,
    "ಾ": 1402,
    "boxes": 8378,
    "conducts": 17976,
    "administratively": 23710,
    "ে": 1381,
    "clip": 12528,
    "synonymous": 22594,
    "##day": 10259,
    "##ე": 29978,
    "##ম": 29906,
    "sylvia": 13378,
    "cello": 10145,
    "surveys": 12265,
    "v8": 15754,
    "times": 2335,
    "protective": 9474,
    "enhancing": 20226,
    "punjab": 9213,
    "##eter": 15141,
    "thin": 4857,
    "##≤": 30135,
    "gale": 14554,
    "inscription": 9315,
    "##grave": 12830,
    "##pps": 28281,
    "s": 1055,
    "breathless": 16701,
    "mesa": 15797,
    "gardening": 21529,
    "##fer": 7512,
    "沢": 1898,
    "murphy": 7104,
    "shah": 7890,
    "approved": 4844,
    "##straße": 24967,
    "##ij": 28418,
    "differently": 11543,
    "signals": 7755,
    "aisle": 12485,
    "claudia": 13479,
    "prostitutes": 20833,
    "sheila": 15062,
    "stir": 16130,
    "fitch": 26062,
    "throne": 6106,
    "penetrating": 22391,
    "##erved": 25944,
    "larson": 21213,
    "ʲ": 1141,
    "leads": 5260,
    "redhead": 26705,
    "befriended": 23386,
    "azure": 24296,
    "zambia": 15633,
    "billy": 5006,
    "1748": 24445,
    "portrayal": 13954,
    "accusation": 19238,
    "seekers": 24071,
    "c": 1039,
    "defeats": 14222,
    "1964": 3546,
    "footing": 22849,
    "trait": 18275,
    "plane": 4946,
    "crest": 11146,
    "spirituality": 21244,
    "shining": 9716,
    "northward": 17192,
    "transitional": 17459,
    "avatar": 22128,
    "##ashi": 12914,
    "clouds": 8044,
    "rested": 8614,
    "render": 17552,
    "mainline": 20575,
    "bowen": 16208,
    "simmons": 13672,
    "horse": 3586,
    "europe": 2885,
    "stockton": 19161,
    "[unused812]": 817,
    "lightweight": 12038,
    "domingo": 15586,
    "[unused300]": 305,
    "grandmaster": 27101,
    "ted": 6945,
    "bali": 20222,
    "thinks": 6732,
    "fan": 5470,
    "##dh": 16425,
    "hms": 7220,
    "##gers": 15776,
    "possessing": 18840,
    "territory": 3700,
    "immigration": 7521,
    "chassis": 11832,
    "delle": 24121,
    "ন": 1366,
    "##ological": 10091,
    "verdict": 14392,
    "flop": 28583,
    "[unused185]": 190,
    "strikers": 26049,
    "ripping": 17039,
    "reused": 26513,
    "##ong": 5063,
    "##iro": 9711,
    "practiced": 9051,
    "yoon": 24863,
    "vo": 29536,
    "goethe": 23173,
    "got": 2288,
    "inlet": 15824,
    "nodes": 14164,
    "1621": 27037,
    "woke": 8271,
    "##izes": 10057,
    "[unused405]": 410,
    "##nac": 18357,
    "##hoff": 17896,
    "profound": 13769,
    "[unused761]": 766,
    "populated": 10357,
    "coconut": 16027,
    "concept": 4145,
    "##ල": 29942,
    "stanza": 29509,
    "bas": 19021,
    "lena": 14229,
    "supplier": 17024,
    "stature": 21120,
    "subdistrict": 24150,
    "virgil": 17270,
    "1771": 20708,
    "traveler": 20174,
    "##水": 30419,
    "eyed": 7168,
    "rbi": 16929,
    "archaic": 19261,
    "susanna": 26681,
    "florian": 29517,
    "unrelated": 15142,
    "thankfully": 16047,
    "werner": 14121,
    "besieged": 17923,
    "winding": 12788,
    "loneliness": 20334,
    "regions": 4655,
    "##ecin": 28191,
    "nitrogen": 14114,
    "atrocities": 23482,
    "patton": 18090,
    "funny": 6057,
    "wardrobe": 17828,
    "larkin": 25570,
    "cappella": 23013,
    "jenny": 8437,
    "##ja": 3900,
    "##elis": 29282,
    "ballads": 18456,
    "[unused751]": 756,
    "##え": 30175,
    "tractor": 16358,
    "[unused196]": 201,
    "մ": 1229,
    "productivity": 15836,
    "##plin": 28296,
    "superstar": 18795,
    "holidays": 11938,
    "##ppet": 29519,
    "[unused210]": 215,
    "legacy": 8027,
    "##lc": 15472,
    "##onga": 26356,
    "meat": 6240,
    "##ossa": 21842,
    "##nen": 10224,
    "lyndon": 23037,
    "tribune": 10969,
    "drowning": 14759,
    "##torm": 20654,
    "distinguished": 5182,
    "subsistence": 27667,
    "limp": 14401,
    "vegas": 7136,
    "det": 20010,
    "stainless": 18676,
    "sexually": 12581,
    "##jak": 18317,
    "henley": 20768,
    "##wara": 11872,
    "augsburg": 24362,
    "underwater": 11564,
    "201": 16345,
    "income": 3318,
    "militants": 17671,
    "tunes": 13281,
    "amadeus": 27185,
    "₁": 1548,
    "##truct": 18300,
    "##nts": 7666,
    "northwest": 4514,
    "actual": 5025,
    "excess": 9987,
    "evacuate": 22811,
    "propagation": 20594,
    "fridays": 26587,
    "##ulu": 20391,
    "region": 2555,
    "##0s": 16223,
    "alf": 24493,
    "donated": 6955,
    "16th": 5767,
    "depths": 11143,
    "premiered": 5885,
    "##genic": 16505,
    "assemblies": 17720,
    "lavish": 22689,
    "inched": 25330,
    "mike": 3505,
    "titles": 4486,
    "ς": 1172,
    "cheated": 22673,
    "cage": 7980,
    "subjected": 13532,
    "altitude": 7998,
    "draw": 4009,
    "gleam": 24693,
    "glare": 10982,
    "castes": 26254,
    "beige": 28799,
    "lsu": 21849,
    "winger": 16072,
    "darkest": 23036,
    "examiner": 19684,
    "1855": 8492,
    "1768": 19793,
    "cheek": 5048,
    "versatile": 22979,
    "##dro": 22196,
    "morocco": 9835,
    "##ction": 7542,
    "##河": 30425,
    "dissolved": 8314,
    "walk": 3328,
    "cove": 11821,
    "horns": 11569,
    "##mare": 24376,
    "paving": 28007,
    "meeting": 3116,
    "behaviors": 15592,
    "##cased": 28969,
    "needing": 11303,
    "juniors": 16651,
    "classed": 27811,
    "greaves": 27808,
    "witty": 25591,
    "##gan": 5289,
    "cameras": 8629,
    "dew": 24903,
    "##enting": 26951,
    "people": 2111,
    "##yte": 17250,
    "##jah": 18878,
    "activated": 8878,
    "niece": 12286,
    "manny": 16320,
    "waist": 5808,
    "##gni": 29076,
    "patel": 20455,
    "##hearted": 27693,
    "##dorf": 11592,
    "[unused886]": 891,
    "carole": 24348,
    "toxicity": 22423,
    "houston": 5395,
    "##nesian": 20281,
    "basically": 10468,
    "scarlet": 11862,
    "falls": 4212,
    "れ": 1688,
    "252": 22898,
    "croft": 28983,
    "already": 2525,
    "immaculate": 19532,
    "pandora": 19066,
    "redevelopment": 15582,
    "##gs": 5620,
    "[unused593]": 598,
    "beaches": 12212,
    "period": 2558,
    "immigrated": 17352,
    "creating": 4526,
    "slides": 14816,
    "eagle": 6755,
    "moreover": 9308,
    "##king": 6834,
    "forbes": 10822,
    "caste": 14542,
    "division": 2407,
    "seriousness": 27994,
    "afternoon": 5027,
    "sniffed": 18013,
    "1970s": 3955,
    "hagen": 24047,
    "##yr": 12541,
    "sneered": 28098,
    "ruined": 9868,
    "mor": 22822,
    "ours": 14635,
    "cemeteries": 20973,
    "related": 3141,
    "##城": 30330,
    "insurrection": 27860,
    "1761": 21364,
    "[unused248]": 253,
    "cote": 17155,
    "daphne": 16847,
    "somehow": 5064,
    "fragment": 15778,
    "[unused96]": 97,
    "stryker": 25429,
    "##sau": 23823,
    "tumbling": 21552,
    "vortex": 23463,
    "assess": 14358,
    "linnaeus": 21610,
    "jade": 12323,
    "lee": 3389,
    "nominees": 17853,
    "formulas": 25814,
    "##books": 17470,
    "illumination": 21203,
    "ː": 1150,
    "topology": 19587,
    "remains": 3464,
    "relief": 4335,
    "leah": 14188,
    "##fare": 17883,
    "bench": 6847,
    "hooker": 17074,
    "guinness": 17323,
    "winked": 14217,
    "dowager": 20508,
    "二": 1752,
    "billions": 25501,
    "##ancy": 11656,
    "fences": 21549,
    "pendleton": 24349,
    "lamps": 14186,
    "enjoy": 5959,
    "oregon": 5392,
    "flicker": 17909,
    "venues": 9356,
    "panic": 6634,
    "valerie": 14264,
    "precedence": 23359,
    "comments": 7928,
    "characteristics": 6459,
    "bathed": 24614,
    "[unused334]": 339,
    "trajectory": 22793,
    "pouch": 21445,
    "[unused792]": 797,
    "notices": 14444,
    "org": 8917,
    "##村": 30404,
    "thomas": 2726,
    "##deh": 25383,
    "##lp": 14277,
    "offenses": 25173,
    "battalion": 4123,
    "developmental": 13908,
    "##kir": 23630,
    "wedge": 17632,
    "hurricane": 7064,
    "grocery": 13025,
    "astoria": 29285,
    "hideous": 22293,
    "[unused335]": 340,
    "baby": 3336,
    "bony": 22678,
    "vista": 13005,
    "trimmed": 21920,
    "##so": 6499,
    "baroque": 10456,
    "##宮": 30350,
    "semi": 4100,
    "food": 2833,
    "mom": 3566,
    "turbine": 14027,
    "gonzaga": 26840,
    "##د": 15394,
    "accessibility": 23661,
    "restored": 5854,
    "##bil": 14454,
    "nobody": 6343,
    "contender": 20127,
    "shall": 4618,
    "dh": 28144,
    "build": 3857,
    "sizable": 25908,
    "germans": 7074,
    "mushroom": 18565,
    "##mba": 11201,
    "recorder": 14520,
    "eugene": 8207,
    "indochina": 27053,
    "##dog": 16168,
    "wealthy": 7272,
    "prominent": 4069,
    "##pan": 9739,
    "89": 6486,
    "##kling": 20260,
    "1990s": 4134,
    "tech": 6627,
    "bremen": 16314,
    "braid": 24148,
    "concurrent": 16483,
    "##fulness": 20938,
    "milano": 21613,
    "##erson": 18617,
    "cad": 28353,
    "##khan": 26370,
    "wound": 6357,
    "##ش": 29825,
    "alexa": 24969,
    "annum": 28907,
    "##ии": 15414,
    "tables": 7251,
    "wishing": 10261,
    "pharmacy": 13882,
    "aux": 19554,
    "pretty": 3492,
    "prince": 3159,
    "humanoid": 28051,
    "delhi": 6768,
    "和": 1796,
    "##wai": 21547,
    "fifa": 5713,
    "israel": 3956,
    "selecting": 17739,
    "hugh": 6621,
    "##イ": 30221,
    "##愛": 30379,
    "philharmonic": 12355,
    "upcoming": 9046,
    "impressive": 8052,
    "mfa": 26913,
    "##−1": 27944,
    "vp": 21210,
    "weighted": 18215,
    "greenhouse": 16635,
    "radar": 7217,
    "derivatives": 16942,
    "harding": 15456,
    "followers": 8771,
    "ottoman": 6188,
    "swirled": 19171,
    "journals": 9263,
    "tertiary": 13553,
    "bey": 20289,
    "programmes": 8497,
    "ェ": 1697,
    "yates": 20356,
    "material": 3430,
    "21st": 7398,
    "##rmi": 28550,
    "encryption": 21999,
    "##date": 13701,
    "arrive": 7180,
    "[unused921]": 926,
    "champion": 3410,
    "##ona": 7856,
    "anne": 4776,
    "attacks": 4491,
    "upside": 14961,
    "hypnotic": 28322,
    "wholly": 12590,
    "##京": 30281,
    "フ": 1720,
    "fruit": 5909,
    "acquiring": 13868,
    "aeronautical": 25010,
    "jiang": 20613,
    "##cede": 22119,
    "up": 2039,
    "##dman": 21804,
    "##due": 20041,
    "augusta": 13635,
    "##dden": 17101,
    "780": 28601,
    "##⁶": 30075,
    "forge": 15681,
    "measurement": 10903,
    "##ions": 8496,
    "decimal": 26066,
    "##how": 14406,
    "professional": 2658,
    "capitalism": 16498,
    "##街": 30472,
    "[unused648]": 653,
    "gunter": 27834,
    "bolt": 10053,
    "contributions": 5857,
    "sacrament": 28958,
    "wheelbase": 29141,
    "##rai": 14995,
    "field": 2492,
    "blindness": 26290,
    "tours": 7562,
    "gary": 5639,
    "somalia": 14717,
    "calculation": 17208,
    "armstrong": 9143,
    "rug": 20452,
    "143": 16065,
    "法": 1901,
    "sylvie": 26009,
    "[unused619]": 624,
    "bertha": 25079,
    "gaped": 23832,
    "es": 9686,
    "actions": 4506,
    "conveyed": 21527,
    "retreating": 17512,
    "limousine": 28012,
    "too": 2205,
    "##9": 2683,
    "##pta": 22799,
    "parcels": 28998,
    "describe": 6235,
    "targets": 7889,
    "restraining": 28285,
    "into": 2046,
    "aspect": 7814,
    "focused": 4208,
    "elsewhere": 6974,
    "instructors": 19922,
    "freiburg": 22871,
    "##chner": 28254,
    "gunner": 14850,
    "##tel": 9834,
    "counterattack": 27835,
    "obligatory": 26471,
    "##sh": 4095,
    "superb": 21688,
    "singleton": 28159,
    "programme": 4746,
    "##ue": 5657,
    "barely": 4510,
    "##lite": 22779,
    "juniper": 29425,
    "##夫": 30339,
    "regulars": 24945,
    "ferrara": 28635,
    "[unused366]": 371,
    "venetian": 15510,
    "[unused815]": 820,
    "[unused896]": 901,
    "together": 2362,
    "sibling": 22941,
    "##holm": 18884,
    "alleged": 6884,
    "uhf": 20131,
    "colored": 6910,
    "san": 2624,
    "ravine": 23188,
    "aloud": 12575,
    "cottages": 18918,
    "paternal": 15112,
    "bahamas": 17094,
    "[unused500]": 505,
    "[unused609]": 614,
    "bushes": 14568,
    "##相": 30445,
    "competitive": 6975,
    "breathe": 7200,
    "confessions": 21444,
    "cherokee": 13796,
    "few": 2261,
    "ය": 1404,
    "[unused377]": 382,
    "shire": 13182,
    "madam": 21658,
    "floppy": 28491,
    "barnsley": 25139,
    "changes": 3431,
    "braking": 24427,
    "wavy": 23098,
    "[unused174]": 179,
    "professors": 12655,
    "empowered": 26480,
    "terminal": 5536,
    "attempting": 7161,
    "marvin": 13748,
    "pounding": 9836,
    "##tung": 21847,
    "1651": 29077,
    "₀": 1547,
    "chatter": 24691,
    "ludwig": 10302,
    "with": 2007,
    "somme": 25158,
    "##sse": 11393,
    "54": 5139,
    "leslie": 8886,
    "129": 14378,
    "plainly": 24250,
    "sociology": 11507,
    "テ": 1713,
    "##top": 14399,
    "##say": 24322,
    "pressure": 3778,
    "agile": 29003,
    "[unused164]": 169,
    "fusion": 10077,
    "kendall": 14509,
    "70": 3963,
    "[unused590]": 595,
    "₊": 1557,
    "travelers": 15183,
    "bloc": 15984,
    "##wny": 22251,
    "1970": 3359,
    "lazy": 13971,
    "fleets": 25515,
    "engages": 24255,
    "nearly": 3053,
    "dia": 22939,
    "metaphor": 19240,
    "unaware": 11499,
    "##ished": 13295,
    "generosity": 26161,
    "は": 1672,
    "persons": 5381,
    "1816": 12357,
    "pedestrian": 14662,
    "mohammed": 12619,
    "flopped": 24723,
    "##nch": 12680,
    "rhyme": 20622,
    "jax": 13118,
    "episodes": 4178,
    "geelong": 18664,
    "elsie": 24603,
    "ס": 1258,
    "puzzle": 11989,
    "home": 2188,
    "taliban": 16597,
    "shift": 5670,
    "innovative": 9525,
    "veteran": 8003,
    "auditioned": 23008,
    "environment": 4044,
    "##№": 30106,
    "barr": 19820,
    "winced": 15574,
    "blowing": 11221,
    "[unused638]": 643,
    "view": 3193,
    "[unused309]": 314,
    "##itis": 13706,
    "gangster": 20067,
    "##aux": 13754,
    "johnston": 10773,
    "sloping": 24724,
    "swore": 12860,
    "〈": 1637,
    "##eron": 26534,
    "illustration": 14614,
    "##є": 29759,
    "honey": 6861,
    "josie": 15293,
    "##க": 29918,
    "##レ": 30260,
    "マ": 1723,
    "barnett": 20073,
    "##ssen": 14416,
    "##now": 19779,
    "organizer": 19012,
    "influence": 3747,
    "pius": 14363,
    "shia": 20474,
    "##rian": 6862,
    "genuine": 10218,
    "##章": 30458,
    "##ud": 6784,
    "yuan": 11237,
    "blossom": 20593,
    "##eses": 23072,
    "ida": 16096,
    "ы": 1206,
    "signature": 8085,
    "disaster": 7071,
    "summit": 6465,
    "extinct": 8548,
    "january": 2254,
    "operator": 6872,
    "禾": 1927,
    "##ke": 3489,
    "headed": 3753,
    "theo": 14833,
    "carlisle": 13575,
    "[unused803]": 808,
    "pioneer": 7156,
    "tuba": 29242,
    "society": 2554,
    "encoding": 17181,
    "recover": 8980,
    "##ery": 7301,
    "scanning": 13722,
    "dmitri": 28316,
    "leaving": 2975,
    "##ian": 2937,
    "observes": 24451,
    "cmll": 25395,
    "every": 2296,
    "counselor": 17220,
    "inverted": 20037,
    "##hmi": 26837,
    "pretoria": 25366,
    "supernatural": 11189,
    "##ivated": 21967,
    "slow": 4030,
    "neighbors": 10638,
    "starring": 4626,
    "##अ": 29847,
    "animal": 4111,
    "inhabited": 9613,
    "harmon": 25546,
    "hs": 26236,
    "dorothea": 24052,
    "sixties": 22651,
    "##ulator": 20350,
    "combining": 11566,
    "robyn": 28047,
    "klein": 12555,
    "concurrency": 24154,
    "cas": 25222,
    "2500": 25108,
    "##kson": 26579,
    "dracula": 18500,
    "occur": 5258,
    "bottles": 11015,
    "##ⁱ": 30072,
    "insertion": 23851,
    "necklace": 13016,
    "##ghan": 22218,
    "stench": 21555,
    "relatives": 9064,
    "pamphlet": 19899,
    "##acle": 18630,
    "infants": 16725,
    "sudan": 10411,
    "khan": 4967,
    "1954": 4051,
    "disorders": 10840,
    "woven": 17374,
    "##ظ": 29829,
    "harris": 5671,
    "homicide": 18268,
    "tamara": 21772,
    "protests": 8090,
    "katrina": 16864,
    "07": 5718,
    "³": 1083,
    "tasmanian": 21394,
    "##vine": 20534,
    "inner": 5110,
    "specialising": 23315,
    "[unused738]": 743,
    "##ch": 2818,
    "##ι": 18199,
    "##hos": 15006,
    "overhead": 8964,
    "lets": 11082,
    "module": 11336,
    "寺": 1827,
    "initiation": 17890,
    "deposed": 18298,
    "##gated": 11644,
    "aggravated": 25817,
    "##zer": 6290,
    "sheltered": 18304,
    "zack": 13658,
    "swing": 7370,
    "depiction": 15921,
    "comparative": 12596,
    "indy": 18214,
    "arched": 9194,
    "ramsay": 19460,
    "fx": 23292,
    "caution": 14046,
    "##il": 4014,
    "##diment": 21341,
    "pieter": 23759,
    "humble": 15716,
    "##fest": 14081,
    "escalated": 26814,
    "conjecture": 22647,
    "ama": 25933,
    "instruments": 5693,
    "##breakers": 27623,
    "corresponds": 14788,
    "α": 1155,
    "vishnu": 17647,
    "##ced": 11788,
    "##tman": 22942,
    "##outh": 17167,
    "deserve": 10107,
    "ashby": 28729,
    "utility": 9710,
    "weakness": 11251,
    "investigator": 14064,
    "captures": 19566,
    "adding": 5815,
    "##lder": 16502,
    "chevrolet": 14724,
    "submission": 12339,
    "until": 2127,
    "padua": 24941,
    "kellan": 19697,
    "##oso": 19137,
    "square": 2675,
    "graphs": 19287,
    "nerves": 10627,
    "arrested": 4727,
    "trial": 3979,
    "##oms": 22225,
    "polymer": 17782,
    "robbers": 28019,
    "understands": 19821,
    "acquaintances": 29409,
    "discipline": 9009,
    "##world": 11108,
    "celeste": 21113,
    "##hia": 12995,
    "guide": 5009,
    "downing": 22501,
    "tendency": 11765,
    "norwich": 12634,
    "remarried": 19316,
    "chiefs": 9058,
    "##gling": 18483,
    "care": 2729,
    "pri": 26927,
    "spoiled": 19582,
    "forefront": 22870,
    "drumming": 22980,
    "massimo": 28080,
    "survives": 13655,
    "##ias": 7951,
    "swallowed": 7351,
    "piano": 3682,
    "craven": 21232,
    "##listic": 27348,
    "rebelled": 25183,
    "arid": 17511,
    "fellow": 3507,
    "##ley": 3051,
    "fares": 27092,
    "poet": 4802,
    "denver": 7573,
    "[unused665]": 670,
    "1840s": 19308,
    "neutron": 20393,
    "artistic": 6018,
    "chains": 8859,
    "sellers": 19041,
    "slant": 27474,
    "##obe": 20891,
    "barnes": 9957,
    "shitty": 28543,
    "shuffled": 18764,
    "baldwin": 10970,
    "tv": 2694,
    "back": 2067,
    "packers": 15285,
    "cardiac": 15050,
    "before": 2077,
    "##bel": 8671,
    "1803": 12651,
    "kathleen": 14559,
    "##hea": 20192,
    "commit": 10797,
    "supportive": 16408,
    "##missible": 26770,
    "glory": 8294,
    "nominally": 24207,
    "action": 2895,
    "秀": 1928,
    "##ᴮ": 30027,
    "shoving": 15866,
    "museum": 2688,
    "##gis": 17701,
    "pbs": 13683,
    "spores": 23763,
    "180": 8380,
    "presses": 14616,
    "##xie": 16898,
    "sub": 4942,
    "interim": 9455,
    "opted": 12132,
    "##↓": 30114,
    "##11": 14526,
    "apt": 26794,
    "beautiful": 3376,
    "timbers": 26238,
    "bump": 16906,
    "ballot": 10428,
    "windsor": 10064,
    "to": 2000,
    "abandon": 10824,
    "##apple": 23804,
    "abbreviation": 22498,
    "alex": 4074,
    "verbs": 16025,
    "##tched": 28265,
    "stray": 15926,
    "⊕": 1612,
    "wooded": 17172,
    "##igen": 29206,
    "[unused959]": 964,
    "verlag": 14552,
    "payton": 28666,
    "dig": 10667,
    "mathematical": 8045,
    "confinement": 21551,
    "[unused70]": 71,
    "hardened": 15015,
    "bingo": 27137,
    "##lav": 14973,
    "summon": 18654,
    "review": 3319,
    "identities": 15702,
    "78": 6275,
    "দ": 1364,
    "-": 1011,
    "spared": 16891,
    "[unused412]": 417,
    "ghanaian": 27202,
    "##₊": 30086,
    "service": 2326,
    "societe": 18341,
    "den": 7939,
    "robe": 11111,
    "settler": 18556,
    "1758": 16832,
    "##lism": 28235,
    "princess": 4615,
    "linguistics": 15397,
    "downstream": 13248,
    "##class": 26266,
    "truck": 4744,
    "109": 11518,
    "evening": 3944,
    "{": 1063,
    "instances": 12107,
    "tapped": 10410,
    "[unused914]": 919,
    "longevity": 26906,
    "dynasties": 23014,
    "compensated": 29258,
    "[unused917]": 922,
    "keane": 27228,
    "playback": 18245,
    "topographic": 24254,
    "attracted": 6296,
    "realms": 18814,
    "neighbourhoods": 27535,
    "1774": 17593,
    "strode": 11885,
    "خ": 1277,
    "##orth": 28610,
    "rancho": 18123,
    "collapse": 7859,
    "1640": 21533,
    "peat": 23366,
    "started": 2318,
    "dragged": 7944,
    "photo": 6302,
    "ж": 1186,
    "##省": 30446,
    "##hol": 14854,
    "enough": 2438,
    "##·": 29661,
    "##〈": 30163,
    "##cture": 14890,
    "horribly": 27762,
    "[unused342]": 347,
    "rather": 2738,
    "##tting": 13027,
    "collaborations": 17437,
    "dresden": 12983,
    "##urity": 25137,
    "彳": 1845,
    "shaved": 20665,
    "circuits": 13782,
    "##nte": 10111,
    "gilded": 23880,
    "tho": 27793,
    "automated": 12978,
    "stellar": 17227,
    "ks": 29535,
    "##ocytes": 28788,
    "pang": 20657,
    "abyss": 22159,
    "caliphate": 28034,
    "##ac": 6305,
    "montane": 21704,
    "##jic": 25008,
    "tenant": 16713,
    "##wad": 26016,
    "publication": 4772,
    "critic": 6232,
    "rarely": 6524,
    "spells": 11750,
    "162": 17832,
    "land": 2455,
    "horizons": 24484,
    "prix": 5431,
    "receptions": 16466,
    "exhibit": 8327,
    "mcmahon": 17741,
    "##ragan": 28905,
    "sindh": 20284,
    "deviation": 24353,
    "##zbek": 28733,
    "1860s": 15914,
    "inexperienced": 26252,
    "unfinished": 14342,
    "cc": 10507,
    "1724": 26423,
    "distribute": 16062,
    "toxic": 11704,
    "##pies": 13046,
    "lyricist": 19489,
    "ك": 1293,
    "continual": 27222,
    "z": 1062,
    "2014": 2297,
    "##erry": 19826,
    "doubt": 4797,
    "lina": 27022,
    "magistrates": 23007,
    "taxis": 25964,
    "nausea": 19029,
    "adele": 17623,
    "[unused67]": 68,
    "sadie": 21330,
    "carry": 4287,
    "website": 4037,
    "[unused626]": 631,
    "blankets": 15019,
    "runway": 9271,
    "colonial": 5336,
    "jiangsu": 28091,
    "titled": 4159,
    "extinguished": 27705,
    "nurses": 11500,
    "##ignon": 24796,
    "obesity": 24552,
    "indefinitely": 20733,
    "seventies": 26232,
    "##mont": 9629,
    "clearly": 4415,
    "richly": 26502,
    "[unused447]": 452,
    "predicted": 10173,
    "ག": 1426,
    "lonely": 9479,
    "detrimental": 29172,
    "##drome": 29171,
    "##hab": 25459,
    "bunk": 25277,
    "pajamas": 27621,
    "##oon": 7828,
    "##ʃ": 29696,
    "practitioners": 14617,
    "extravagant": 27856,
    "noting": 9073,
    "##sd": 16150,
    "##most": 11800,
    "confusion": 6724,
    "[unused388]": 393,
    "punches": 17957,
    "london": 2414,
    "columnist": 13317,
    "creation": 4325,
    "crime": 4126,
    "cubic": 11919,
    "##ogenic": 24278,
    "560": 21267,
    "##ter": 3334,
    "oakland": 9182,
    "chattanooga": 23351,
    "##aine": 18175,
    "mason": 6701,
    "111": 11118,
    "ɐ": 1109,
    "1869": 7845,
    "brasil": 21133,
    "repression": 22422,
    "sonora": 26647,
    "burlington": 15552,
    "##ign": 23773,
    "##ano": 6761,
    "pleistocene": 25080,
    "mansion": 7330,
    "ɲ": 1123,
    "##27": 22907,
    "##sco": 9363,
    "formation": 4195,
    "toronto": 4361,
    "custom": 7661,
    "@": 1030,
    "spanned": 18212,
    "servicemen": 26714,
    "nak": 17823,
    "##oco": 24163,
    "metacritic": 14476,
    "ﬂ": 1985,
    "newsletter": 17178,
    "trained": 4738,
    "ascension": 18071,
    "everest": 23914,
    "surrounds": 20626,
    "##rard": 25561,
    "vigorous": 21813,
    "endurance": 14280,
    "consistent": 8335,
    "anders": 15387,
    "compton": 18592,
    "75th": 25092,
    "##rani": 21578,
    "##guard": 18405,
    "remarked": 10783,
    "tc": 22975,
    "invasions": 23536,
    "liberia": 18039,
    "ridden": 15230,
    "transition": 6653,
    "sergey": 22703,
    "raion": 24235,
    "vegetables": 11546,
    "samson": 18375,
    "russia": 3607,
    "##lese": 24527,
    "vijay": 17027,
    "growth": 3930,
    "gutierrez": 20836,
    "macau": 16878,
    "acres": 4631,
    "[unused670]": 675,
    "experiencing": 13417,
    "##bain": 29148,
    "clause": 11075,
    "##itors": 27287,
    "1628": 28627,
    "sixteen": 7032,
    "principally": 16552,
    "##μ": 29728,
    "kidding": 12489,
    "empowerment": 23011,
    "barbarian": 25075,
    "rams": 13456,
    "##ˡ": 29716,
    "の": 1671,
    "gujarat": 14288,
    "clube": 24852,
    "overlooking": 12549,
    "##omorphic": 28503,
    "renewed": 9100,
    "starbucks": 29500,
    "weigh": 17042,
    "shrimp": 20130,
    "##yra": 19563,
    "“": 1523,
    "pill": 17357,
    "##nic": 8713,
    "##mbe": 18552,
    "smoothed": 17966,
    "龸": 1983,
    "1981": 3261,
    "kinase": 21903,
    "memorial": 3986,
    "##dan": 7847,
    "vigorously": 22400,
    "cynthia": 15809,
    "prevents": 16263,
    "rattle": 23114,
    "pamela": 17217,
    "flushed": 12953,
    "portion": 4664,
    "301": 19123,
    "##キ": 30227,
    "filmed": 6361,
    "da": 4830,
    "burned": 5296,
    "harness": 17445,
    "angrily": 14136,
    "reassuring": 21093,
    "loss": 3279,
    "khmer": 19472,
    "##pic": 24330,
    "counseling": 17041,
    "reilly": 13875,
    "crop": 10416,
    "powell": 8997,
    "↓": 1586,
    "mario": 7986,
    "saul": 16897,
    "##adi": 17190,
    "cranes": 27083,
    "##ア": 30219,
    "[unused695]": 700,
    "perrin": 28106,
    "thru": 27046,
    "tam": 17214,
    "##₄": 17004,
    "##schaft": 26527,
    "zombie": 11798,
    "clones": 24418,
    "sighs": 19906,
    "marsh": 9409,
    "freaking": 13847,
    "jaguars": 24017,
    "inducing": 29290,
    "watches": 12197,
    "belong": 7141,
    "conditions": 3785,
    "stations": 3703,
    "##ree": 9910,
    "regulates": 26773,
    "wen": 19181,
    "paintings": 5265,
    "duel": 14216,
    "[unused69]": 70,
    "monica": 9018,
    "fans": 4599,
    "##hein": 26496,
    "priests": 8656,
    "medicinal": 20632,
    "controversy": 6704,
    "switches": 15924,
    "magnus": 10045,
    "mca": 22432,
    "barrington": 26469,
    "courtship": 28592,
    "##ɫ": 29686,
    "bradshaw": 23762,
    "bala": 21451,
    "reactivated": 28577,
    "##quest": 15500,
    "during": 2076,
    "chelsea": 9295,
    "ankara": 20312,
    "panels": 9320,
    "mankind": 14938,
    "##stov": 29473,
    "##iti": 25090,
    "##ele": 12260,
    "residential": 5647,
    "##gor": 20255,
    "##tron": 15312,
    "##ӏ": 29765,
    "emir": 23434,
    "##ayan": 25868,
    "twitched": 16767,
    "fide": 26000,
    "mcconnell": 28514,
    "nair": 22525,
    "piers": 16067,
    "bobo": 27418,
    "hutchinson": 17165,
    "excerpts": 24962,
    "verify": 20410,
    "lola": 15137,
    "lucius": 15639,
    "harp": 14601,
    "migrant": 20731,
    "demoted": 25692,
    "individuals": 3633,
    "embrace": 9979,
    "hamish": 28859,
    "disney": 6373,
    "disposal": 13148,
    "##onic": 12356,
    "##rt": 5339,
    "scandinavia": 20612,
    "‚": 1522,
    "fortress": 7841,
    "shells": 10986,
    "##ched": 7690,
    "##hrer": 17875,
    "kiss": 3610,
    "armand": 20371,
    "##ɯ": 29688,
    "hazardous": 17760,
    "##』": 30170,
    "sri": 5185,
    "ismail": 19214,
    "porsche": 16099,
    "[unused586]": 591,
    "bu": 20934,
    "ritchie": 20404,
    "competitions": 6479,
    "flanagan": 26558,
    "立": 1931,
    "##23": 21926,
    "viewed": 7021,
    "less": 2625,
    "radicals": 23618,
    "ld": 25510,
    "##¥": 29648,
    "##eil": 24359,
    "185": 15376,
    "served": 2366,
    "patent": 7353,
    "##mouth": 14359,
    "[unused794]": 799,
    "jung": 11810,
    "hungarians": 24027,
    "unconventional": 23693,
    "sphinx": 27311,
    "alone": 2894,
    "##ine": 3170,
    "mouth": 2677,
    "##vers": 14028,
    "##df": 20952,
    "##rd": 4103,
    "vet": 29525,
    "nickel": 15519,
    "flair": 22012,
    "seize": 15126,
    "##ila": 11733,
    "employer": 11194,
    "fifties": 25942,
    "vines": 16702,
    "##rence": 24413,
    "illicit": 25049,
    "substituted": 17316,
    "section": 2930,
    "##reate": 29313,
    "soared": 29127,
    "##क": 29851,
    "[unused649]": 654,
    "##table": 10880,
    "century": 2301,
    "1830": 9500,
    "##urus": 20089,
    "[unused524]": 529,
    "accidentally": 9554,
    "candidate": 4018,
    "blazing": 17162,
    "services": 2578,
    "adversary": 27248,
    "interventions": 19388,
    "clutching": 14197,
    "provision": 9347,
    "resurrected": 23053,
    "whichever": 29221,
    "##erina": 26052,
    "project": 2622,
    "burnett": 13829,
    "escape": 4019,
    "外": 1809,
    "assortment": 26285,
    "##86": 20842,
    "foreigner": 29524,
    "advises": 25453,
    "york": 2259,
    "chooses": 15867,
    "##bc": 9818,
    "numerous": 3365,
    "##lating": 22248,
    "nations": 3741,
    "size": 2946,
    "##nat": 19833,
    "kei": 26679,
    "little": 2210,
    "chad": 9796,
    "becoming": 3352,
    "nutrition": 14266,
    "comparatively": 20172,
    "##健": 30294,
    "samantha": 11415,
    "newly": 4397,
    "uses": 3594,
    "##nova": 13455,
    "ufc": 11966,
    "vuelta": 21441,
    "gifted": 12785,
    "[unused455]": 460,
    "thing": 2518,
    "shops": 7340,
    "patents": 13979,
    "ear": 4540,
    "sorry": 3374,
    "publications": 5523,
    "foundations": 10100,
    "##←": 30111,
    "nonlinear": 27400,
    "##laya": 22923,
    "13": 2410,
    "whatever": 3649,
    "pakistan": 4501,
    "##lets": 13461,
    "jesse": 7627,
    "[unused225]": 230,
    "86": 6564,
    "apex": 13450,
    "shopping": 6023,
    "distinguishing": 20852,
    "##ml": 19968,
    "##anza": 16076,
    "adopted": 4233,
    "direction": 3257,
    "be": 2022,
    "parisian": 24262,
    "housed": 7431,
    "euros": 19329,
    "winning": 3045,
    "footballer": 4362,
    "scars": 13521,
    "##hone": 27406,
    "hungary": 5872,
    "diffusion": 19241,
    "##oit": 28100,
    "ت": 1273,
    "caucasian": 23368,
    "武": 1889,
    "attributed": 7108,
    "lap": 5001,
    "coveted": 28821,
    "chapters": 9159,
    "flanders": 13998,
    "ability": 3754,
    "reminding": 15906,
    "1976": 3299,
    "##つ": 30190,
    "freed": 10650,
    "upbeat": 27999,
    "victorious": 13846,
    "##sser": 18116,
    "saliva": 26308,
    "laurie": 16450,
    "1755": 21417,
    "─": 1615,
    "jacket": 6598,
    "emigrated": 11367,
    "contribution": 6691,
    "[unused671]": 676,
    "bray": 19743,
    "loose": 6065,
    "enclosure": 17539,
    "##ヒ": 30245,
    "金": 1964,
    "eastbound": 24773,
    "populations": 7080,
    "deteriorating": 28440,
    "esteem": 19593,
    "sidewalk": 11996,
    "ghetto": 17276,
    "anthropology": 12795,
    "developers": 9797,
    "soaking": 22721,
    "usb": 18833,
    "##阝": 30496,
    "##ded": 5732,
    "involve": 9125,
    "dynamic": 8790,
    "burst": 6532,
    "slamming": 15209,
    "cookie": 17387,
    "confirm": 12210,
    "reversal": 23163,
    "glossy": 19504,
    "peel": 14113,
    "talked": 5720,
    "roach": 20997,
    "##pal": 12952,
    "polytechnic": 14466,
    "扌": 1859,
    "squads": 20191,
    "[unused602]": 607,
    "sketches": 12741,
    "wreck": 12006,
    "1946": 3918,
    "reasons": 4436,
    "[unused730]": 735,
    "slid": 4934,
    "##ided": 14097,
    "##eria": 11610,
    "inaugurated": 11070,
    "1916": 4947,
    "##mation": 28649,
    "##ᄌ": 30000,
    "##nail": 25464,
    "gets": 4152,
    "streak": 9039,
    "visibly": 19397,
    "constantin": 27991,
    "primetime": 18474,
    "##ach": 6776,
    "bunch": 9129,
    "##₹": 30104,
    "##xy": 18037,
    "##esa": 22447,
    "##qui": 15549,
    "##beam": 28302,
    "awhile": 19511,
    "miami": 5631,
    "laws": 4277,
    "lions": 7212,
    "stacked": 16934,
    "daniel": 3817,
    "predominant": 21047,
    "past": 2627,
    "muriel": 27616,
    "##sari": 22740,
    "tori": 23413,
    "giggling": 21783,
    "##،": 29814,
    "##▪": 30145,
    "見": 1948,
    "phillies": 15711,
    "kilometres": 3717,
    "##≥": 30136,
    "complied": 26946,
    "herring": 22103,
    "unity": 8499,
    "scripted": 22892,
    "etymology": 26803,
    "##mar": 7849,
    "##rford": 26430,
    "encore": 19493,
    "##bria": 21556,
    "pioneers": 13200,
    "##pw": 28400,
    "##cting": 11873,
    "reviews": 4391,
    "disclosed": 21362,
    "electrode": 28688,
    "younger": 3920,
    "jess": 12245,
    "¹⁄₂": 18728,
    "25th": 10965,
    "goods": 5350,
    "aroused": 18391,
    "ministry": 3757,
    "104": 9645,
    "preserving": 15224,
    "[unused979]": 984,
    "##inge": 23496,
    "deliberate": 15063,
    "##ᵏ": 30037,
    "timothy": 10805,
    "irving": 12415,
    "massage": 21881,
    "37": 4261,
    "##70": 19841,
    "saddle": 12279,
    "ballad": 11571,
    "##ales": 23266,
    "laude": 21602,
    "##stand": 21515,
    "⁷": 1541,
    "pins": 16300,
    "ata": 29533,
    "dublin": 5772,
    "pressures": 15399,
    "##hul": 21886,
    "investigators": 14766,
    "ں": 1306,
    "ami": 26445,
    "##gence": 17905,
    "chaos": 8488,
    "mauritius": 18004,
    "fraction": 12884,
    "kala": 26209,
    "[unused847]": 852,
    "midfielder": 8850,
    "460": 17267,
    "grammatical": 24402,
    "##itte": 27100,
    "##nction": 27989,
    "murder": 4028,
    "tool": 6994,
    "##uba": 19761,
    "1924": 4814,
    "exeter": 12869,
    "pinned": 11807,
    "endorsement": 20380,
    "skulls": 21542,
    "tack": 26997,
    "consulted": 17535,
    "ன": 1387,
    "charged": 5338,
    "receipt": 24306,
    "carey": 11782,
    "1993": 2857,
    "plank": 24000,
    "mcmillan": 27436,
    "##pm": 9737,
    "##going": 26966,
    "##和": 30322,
    "##sport": 20205,
    "##tage": 26702,
    "##ա": 29766,
    "##lta": 24458,
    "detection": 10788,
    "##主": 30273,
    "officers": 3738,
    "strategies": 9942,
    "yvonne": 21684,
    "confederacy": 18179,
    "villas": 27317,
    "[unused463]": 468,
    "shuffling": 24770,
    "planck": 26486,
    "153": 16710,
    "lily": 7094,
    "##tters": 24168,
    "##se": 3366,
    "##‐": 30048,
    "dean": 4670,
    "clinging": 17892,
    "##nington": 23155,
    "assistant": 3353,
    "pavement": 14271,
    "prison": 3827,
    "calculate": 18422,
    "meyer": 11527,
    "##ten": 6528,
    "##unes": 26639,
    "medals": 6665,
    "##chase": 26300,
    "passport": 12293,
    "silvia": 27827,
    "crying": 6933,
    "##國": 30326,
    "pv": 26189,
    "##meter": 22828,
    "geneva": 9810,
    "wait": 3524,
    "##boards": 15271,
    "torture": 8639,
    "poor": 3532,
    "pillow": 10005,
    "sang": 6369,
    "alcoholism": 25519,
    "moderator": 29420,
    "emma": 5616,
    "observed": 5159,
    "bon": 14753,
    "col": 8902,
    "##ħ": 29672,
    "camel": 19130,
    "eyebrows": 8407,
    "asa": 17306,
    "##wu": 16050,
    "garment": 19002,
    "##buro": 23670,
    "whisky": 21265,
    "##ppa": 13944,
    "stab": 17079,
    "hilly": 22800,
    "[unused631]": 636,
    "1898": 6068,
    "boroughs": 21413,
    "olympiad": 25225,
    "things": 2477,
    "pathology": 19314,
    "knights": 7307,
    "ŋ": 1106,
    "dir": 16101,
    "blackened": 25788,
    "ru": 21766,
    "distress": 12893,
    "eruption": 17259,
    "thigh": 10120,
    "##hed": 9072,
    "bacteria": 10327,
    "rails": 15168,
    "##ose": 9232,
    "mystery": 6547,
    "ւ": 1238,
    "ballots": 17069,
    "ingredients": 12760,
    "hours": 2847,
    "statutory": 15201,
    "nine": 3157,
    "revue": 17480,
    "challenges": 7860,
    "meadow": 13244,
    "##mic": 7712,
    "strongest": 10473,
    "##tte": 4674,
    "atlas": 11568,
    "steele": 12872,
    "ka": 10556,
    "movements": 5750,
    "##ara": 5400,
    "[unused675]": 680,
    "brightest": 26849,
    "leger": 26523,
    "seismic": 22630,
    "kitty": 14433,
    "##fting": 26169,
    "philosophical": 9569,
    "##gical": 26715,
    "##idon": 28201,
    "##ス": 30233,
    "personally": 7714,
    "～": 1995,
    "try": 3046,
    "gwen": 11697,
    "[unused836]": 841,
    "##taro": 28160,
    "linda": 8507,
    "routledge": 21180,
    "##ido": 13820,
    "plural": 13994,
    "hans": 7003,
    "ghostly": 24407,
    "mortgage": 14344,
    "consultation": 16053,
    "harmonic": 19452,
    "յ": 1230,
    "taxes": 7773,
    "##ugh": 8953,
    "nicolas": 9473,
    "burying": 20491,
    "consequently": 8821,
    "parcel": 20463,
    "brook": 9566,
    "##nish": 24014,
    "clarissa": 25260,
    "conferred": 15186,
    "fresco": 26991,
    "spraying": 29035,
    "seahawks": 21390,
    "rooted": 15685,
    "seductive": 23182,
    "risks": 10831,
    "ledge": 18283,
    "indications": 24936,
    "##mon": 8202,
    "bank": 2924,
    "paces": 24785,
    "exercise": 6912,
    "turing": 28639,
    "assault": 6101,
    "hugs": 24459,
    "paddle": 20890,
    "ml": 19875,
    "supermarket": 17006,
    "##ウ": 30222,
    "meredith": 10635,
    "paralysis": 26287,
    "verses": 11086,
    "forehead": 6130,
    "rodeo": 18936,
    "continuum": 22961,
    "rico": 7043,
    "##kowski": 15449,
    "promises": 10659,
    "co": 2522,
    "sea": 2712,
    "fourteenth": 15276,
    "##unda": 18426,
    "##cius": 25393,
    "schneider": 15159,
    "ᄀ": 1455,
    "1725": 25651,
    "চ": 1356,
    "##aves": 21055,
    "argyll": 27365,
    "except": 3272,
    "prolific": 12807,
    "oclc": 12258,
    "enthusiastically": 24935,
    "sylvester": 20016,
    "fireplace": 13788,
    "hasan": 17000,
    "##cross": 16458,
    "beers": 18007,
    "gps": 14658,
    "girlfriends": 27408,
    "apostolic": 11815,
    "[unused855]": 860,
    "credited": 5827,
    "swear": 8415,
    "fe": 10768,
    "eminent": 14953,
    "##vitt": 28656,
    "##ient": 11638,
    "abrupt": 18772,
    "finances": 16156,
    "contraction": 21963,
    "configured": 26928,
    "ruins": 8435,
    "russo": 17023,
    "finger": 4344,
    "landing": 4899,
    "♠": 1623,
    "mines": 7134,
    "edison": 17046,
    "ambient": 17093,
    "occurred": 4158,
    "##lts": 21593,
    "resemblance": 14062,
    "mentioned": 3855,
    "nbc": 6788,
    "##ify": 8757,
    "ย": 1416,
    "##arty": 23871,
    "##kou": 24861,
    "##imov": 25299,
    "singers": 8453,
    "mongol": 17450,
    "1711": 28455,
    "redeveloped": 28053,
    "canning": 24549,
    "orphanage": 18504,
    "##ely": 26006,
    "punched": 11696,
    "merged": 5314,
    "tugged": 10621,
    "administer": 21497,
    "hobart": 14005,
    "##utation": 26117,
    "flushing": 23519,
    "ligand": 27854,
    "郡": 1959,
    "pioneering": 13280,
    "##rone": 20793,
    "seduce": 23199,
    "ranger": 11505,
    "arabia": 9264,
    "marketing": 5821,
    "twisting": 12814,
    "citizens": 4480,
    "advocating": 20324,
    "kinds": 7957,
    "industries": 6088,
    "c2": 29248,
    "corners": 8413,
    "magnificent": 12047,
    "deluxe": 15203,
    "coasts": 20266,
    "##do": 3527,
    "50": 2753,
    "##bury": 4917,
    "loan": 5414,
    "distraction": 14836,
    "##herton": 27949,
    "##enstein": 21819,
    "concentration": 6693,
    "nowhere": 7880,
    "rooftop": 23308,
    "arthur": 4300,
    "[unused161]": 166,
    "orbiting": 26472,
    "shanghai": 8344,
    "else": 2842,
    "թ": 1224,
    "ndp": 21915,
    "tremor": 27734,
    "accepted": 3970,
    "##cko": 19665,
    "terraces": 25633,
    "chopped": 24881,
    "gideon": 12137,
    "margins": 17034,
    "quarterfinals": 9237,
    "un": 4895,
    "somali": 16831,
    "massif": 24875,
    "indoor": 7169,
    "philippine": 7802,
    "aw": 22091,
    "terrorist": 9452,
    "essays": 8927,
    "₂": 1549,
    "स": 1338,
    "gene": 4962,
    "humanitarian": 11470,
    "retrieve": 12850,
    "mvp": 12041,
    "feather": 15550,
    "inconsistent": 20316,
    "jericho": 17309,
    "participate": 5589,
    "salvage": 18340,
    "wright": 6119,
    "interlude": 25347,
    "sprayed": 25401,
    "pigeons": 27567,
    "hearted": 18627,
    "playboy": 18286,
    "cafes": 23812,
    "protections": 28548,
    "chancellor": 7306,
    "3rd": 3822,
    "##face": 12172,
    "ء": 1269,
    "newcomers": 24159,
    "inter": 6970,
    "busiest": 20530,
    "##sibility": 28255,
    "##wide": 22517,
    "walked": 2939,
    "yeomanry": 26883,
    "barrel": 8460,
    "aramaic": 28934,
    "stalks": 29594,
    "certificates": 17987,
    "toned": 27604,
    "amended": 13266,
    "shorts": 9132,
    "terra": 14403,
    "te": 8915,
    "ad": 4748,
    "heaven": 6014,
    "scarred": 21985,
    "rc": 22110,
    "postdoctoral": 29272,
    "grease": 21956,
    "manuel": 7762,
    "temperament": 26270,
    "##vent": 15338,
    "nudged": 18666,
    "η": 1161,
    "##cky": 17413,
    "claimed": 3555,
    "sp": 11867,
    "etched": 20286,
    "stacy": 18566,
    "annoyance": 17466,
    "councillors": 13189,
    "##rid": 14615,
    "##acio": 21361,
    "fortune": 7280,
    "sprinter": 19938,
    "vested": 26003,
    "##糹": 30460,
    "folks": 12455,
    "##bles": 13510,
    "mclaren": 18590,
    "opt": 23569,
    "##uri": 9496,
    "辶": 1956,
    "##高": 30507,
    "definitive": 15764,
    "##ode": 10244,
    "reliability": 15258,
    "flourishing": 29571,
    "rejoined": 14311,
    "crucial": 10232,
    "[unused95]": 96,
    "emerald": 14110,
    "კ": 1446,
    "wilhelm": 9070,
    "##p": 2361,
    "propped": 16863,
    "bloody": 6703,
    "cicero": 23080,
    "miscellaneous": 25408,
    "warlord": 16579,
    "mbe": 20301,
    "slipped": 5707,
    "hurdles": 18608,
    "richards": 9712,
    "##train": 23654,
    "##?": 29632,
    "1948": 3882,
    "web": 4773,
    "avoidance": 24685,
    "##room": 9954,
    "##master": 8706,
    "nile": 15179,
    "♦": 1626,
    "vital": 8995,
    "fuse": 19976,
    "53": 5187,
    "crawford": 10554,
    "circular": 8206,
    "1876": 7326,
    "##weed": 18041,
    "agra": 29542,
    "libre": 21091,
    "##otte": 28495,
    "energetic": 18114,
    "##南": 30311,
    "op": 6728,
    "ship": 2911,
    "nominal": 15087,
    "loaf": 27048,
    "48th": 27787,
    "loyalists": 26590,
    "asphalt": 16295,
    "adjacent": 5516,
    "purity": 18433,
    "as": 2004,
    "operates": 5748,
    "ava": 10927,
    "demonstrations": 13616,
    "champions": 3966,
    "archdeacon": 21742,
    "espana": 20678,
    "rumor": 19075,
    "[unused425]": 430,
    "##ζ": 29724,
    "2000s": 8876,
    "norms": 17606,
    "sizes": 10826,
    "[unused480]": 485,
    "eleven": 5408,
    "[unused877]": 882,
    "eternity": 12715,
    "fighter": 4959,
    "bounded": 10351,
    "bathroom": 5723,
    "grave": 6542,
    "sebastien": 28328,
    "million": 2454,
    "archived": 9749,
    "mainly": 3701,
    "##uche": 19140,
    "variant": 8349,
    "oceans": 17401,
    "roommate": 18328,
    "dispersal": 27602,
    "dysfunction": 28466,
    "minor": 3576,
    "##uid": 21272,
    "arms": 2608,
    "smackdown": 22120,
    "##grapher": 18657,
    "papacy": 25097,
    "tends": 12102,
    "uniting": 26112,
    "volvo": 21074,
    "twice": 3807,
    "##pire": 20781,
    "von": 3854,
    "sound": 2614,
    "alternatives": 15955,
    "generic": 12391,
    "careless": 23358,
    "##ahu": 21463,
    "unacceptable": 21873,
    "levine": 17780,
    "seriously": 5667,
    "dizzy": 14849,
    "faux": 29276,
    "skier": 21294,
    "mp": 6131,
    "[unused643]": 648,
    "dangerously": 20754,
    "cruising": 22206,
    "residual": 21961,
    "##dock": 14647,
    "they": 2027,
    "moscow": 4924,
    "仮": 1761,
    "##nese": 14183,
    "##ks": 5705,
    "##etano": 28752,
    "rocky": 6857,
    "1744": 25846,
    "dong": 11947,
    "##₆": 30082,
    "firm": 3813,
    "putting": 5128,
    "peabody": 20004,
    "garrison": 8427,
    "desirable": 16166,
    "##bella": 21700,
    "divided": 4055,
    "legislator": 22964,
    "stefano": 19618,
    "its": 2049,
    "avalanche": 18846,
    "packets": 23730,
    "lama": 18832,
    "د": 1278,
    "##چ": 29840,
    "ode": 24040,
    "edmond": 21773,
    "proof": 6947,
    "karlsruhe": 26660,
    "unhappy": 12511,
    "glanced": 3887,
    "1756": 22370,
    "##icular": 21412,
    "highland": 10983,
    "slate": 12796,
    "distal": 29333,
    "optimism": 27451,
    "household": 4398,
    "radiated": 23000,
    "261": 24441,
    "terry": 6609,
    "dissolve": 21969,
    "ari": 10488,
    "勝": 1780,
    "47th": 28243,
    "reich": 14365,
    "swedish": 4467,
    "2019": 10476,
    "raked": 22438,
    "##grade": 24170,
    "##tro": 13181,
    "tribes": 6946,
    "deaf": 12419,
    "brave": 9191,
    "rubble": 17538,
    "feast": 9831,
    "solo": 3948,
    "revealed": 3936,
    "abroad": 6917,
    "foster": 6469,
    "bribe": 26470,
    "fishing": 5645,
    "226": 21035,
    "##meric": 25531,
    "provider": 10802,
    "anxious": 11480,
    "realize": 5382,
    "##masters": 27751,
    "elegant": 11552,
    "drenched": 25265,
    "chandra": 16469,
    "##ث": 29818,
    "[unused43]": 44,
    "##forms": 22694,
    "lines": 3210,
    "customary": 16120,
    "throw": 5466,
    "compelled": 15055,
    "interpret": 17841,
    "##urian": 29091,
    "resembles": 12950,
    "##ホ": 30248,
    "supporter": 10129,
    "apologize": 12134,
    "dali": 29095,
    "##kell": 18690,
    "trinidad": 11856,
    "fused": 19660,
    "[unused800]": 805,
    "paso": 17161,
    "glucose": 18423,
    "dryly": 20825,
    "italians": 16773,
    "[unused526]": 531,
    "##ward": 7652,
    "bug": 11829,
    "stemmed": 27674,
    "utterly": 12580,
    "upper": 3356,
    "naacp": 26155,
    "proposal": 6378,
    "predator": 15267,
    "witch": 6965,
    "allotted": 23932,
    "caller": 20587,
    "##jun": 19792,
    "##rted": 17724,
    "halloween": 14414,
    "rodgers": 15652,
    "bihar": 16178,
    "eton": 21687,
    "uniforms": 11408,
    "kb": 21677,
    "intermediate": 7783,
    "horrors": 22812,
    "administering": 28965,
    "ssr": 20896,
    "tried": 2699,
    "[unused874]": 879,
    "##rity": 15780,
    "##nched": 19282,
    "filter": 11307,
    "##iano": 15668,
    "remember": 3342,
    "darryl": 22821,
    "tender": 8616,
    "mahmoud": 27278,
    "granted": 4379,
    "volcanoes": 23694,
    "sd": 17371,
    "caravan": 17184,
    "hollywood": 5365,
    "instinctively": 16607,
    "tarzan": 24566,
    "њ": 1216,
    "##cel": 29109,
    "sport": 4368,
    "wu": 8814,
    "tenor": 9534,
    "sorrow": 14038,
    "frustrating": 25198,
    "##dic": 14808,
    "corey": 18132,
    "zoning": 27462,
    "comfort": 7216,
    "capita": 8353,
    "kinetic": 20504,
    "polar": 11508,
    "##տ": 29783,
    "bitterly": 19248,
    "##lock": 7878,
    "exemption": 19621,
    "##lli": 6894,
    "duke": 3804,
    "undergraduate": 8324,
    "hardcover": 20990,
    "capacities": 21157,
    "professionally": 12145,
    "gathers": 29438,
    "keith": 6766,
    "banged": 22843,
    "sandwiches": 22094,
    "##ր": 29784,
    "##uge": 22890,
    "agnes": 11166,
    "##ouring": 27897,
    "portfolio": 11103,
    "savannah": 10891,
    "girls": 3057,
    "medicine": 4200,
    "recaptured": 23838,
    "[unused902]": 907,
    "celine": 24550,
    "convince": 8054,
    "1763": 18432,
    "##frame": 15643,
    "eki": 23174,
    "##rie": 7373,
    "##ald": 19058,
    "660": 20982,
    "1738": 28009,
    "sheer": 11591,
    "requiem": 21199,
    "hardware": 8051,
    "wrestlemania": 28063,
    "##bn": 24700,
    "partition": 13571,
    "garlic": 20548,
    "shipping": 7829,
    "migrate": 22806,
    "abdullah": 14093,
    "bent": 6260,
    "rail": 4334,
    "balcony": 11673,
    "[unused151]": 156,
    "munster": 11348,
    "societies": 8384,
    "cadet": 12738,
    "barked": 17554,
    "##ologists": 16886,
    "sighted": 19985,
    "anterior": 15099,
    "##guide": 28582,
    "watered": 27129,
    "##phus": 25255,
    "##よ": 30210,
    "##yles": 26274,
    "##ly": 2135,
    "davenport": 16273,
    "##nism": 28113,
    "clemson": 25906,
    "novel": 3117,
    "pleased": 7537,
    "grenades": 21914,
    "darkness": 4768,
    "bracket": 21605,
    "occurs": 5158,
    "##bala": 25060,
    "antennas": 26315,
    "##nage": 27031,
    "tres": 24403,
    "dial": 13764,
    "interests": 5426,
    "kota": 23856,
    "laird": 21964,
    "macbeth": 25182,
    "##;": 29628,
    "##ero": 10624,
    "neuroscience": 23700,
    "purchased": 4156,
    "trusted": 9480,
    "\\": 1032,
    "conspiracy": 9714,
    "fetal": 25972,
    "corinne": 26879,
    "krishna": 10871,
    "80s": 16002,
    "roster": 9238,
    "##edly": 26207,
    "makeup": 5789,
    "astronomical": 13674,
    "nrhp": 22424,
    "tipperary": 17333,
    "charm": 11084,
    "##gb": 18259,
    "remain": 3961,
    "flatly": 24295,
    "paperwork": 17397,
    "revenue": 6599,
    "evidence": 3350,
    "necessary": 4072,
    "defending": 6984,
    "discovers": 9418,
    "##ricting": 28827,
    "##ւ": 29785,
    "kawasaki": 27324,
    "cuts": 7659,
    "practicing": 12560,
    "sounds": 4165,
    "leningrad": 15930,
    "##ot": 4140,
    "blasts": 25829,
    "coven": 25248,
    "testosterone": 25937,
    "peter": 2848,
    "##ndra": 17670,
    "trillion": 23458,
    "##cend": 23865,
    "automation": 19309,
    "dwellings": 16707,
    "involvement": 6624,
    "##hp": 22269,
    "!": 999,
    "leverage": 21155,
    "temperance": 23372,
    "ɯ": 1122,
    "[unused145]": 150,
    "projecting": 18398,
    "drills": 28308,
    "##ppy": 27659,
    "##hler": 13620,
    "offices": 4822,
    "enlarged": 11792,
    "mornings": 16956,
    "tearing": 13311,
    "##gly": 25643,
    "[unused456]": 461,
    "intimidating": 24439,
    "1400": 20652,
    "accused": 5496,
    "periodically": 18043,
    "140": 8574,
    "reissue": 17173,
    "##phs": 18757,
    "logging": 15899,
    "distributed": 5500,
    "##17": 16576,
    "uss": 7234,
    "type": 2828,
    "moroccan": 17494,
    "deposition": 19806,
    "##umi": 12717,
    "hangul": 19051,
    "winter": 3467,
    "##व": 29871,
    "stop": 2644,
    "eduardo": 14846,
    "##istle": 24242,
    "sony": 8412,
    "cried": 6639,
    "daze": 28918,
    "armenian": 7508,
    "1997": 2722,
    "lac": 18749,
    "si": 9033,
    "irs": 25760,
    "silhouette": 21776,
    "148": 16459,
    "but": 2021,
    "##neer": 19755,
    "##nea": 22084,
    "reacting": 24868,
    "hung": 5112,
    "##via": 9035,
    "##κ": 29726,
    "palaces": 22763,
    "##ale": 9453,
    "konstantin": 23989,
    "tremendous": 14388,
    "ca": 6187,
    "##iface": 29164,
    "##rse": 22573,
    "bafta": 22284,
    "biased": 25352,
    "wharf": 16435,
    "manning": 11956,
    "betrayal": 14583,
    "##さ": 30182,
    "completely": 3294,
    "turbulence": 29083,
    "mistaken": 13534,
    "converting": 16401,
    "blame": 7499,
    "madness": 12013,
    "ambush": 15283,
    "kyrgyzstan": 23209,
    "##lam": 10278,
    "##tur": 20689,
    "greeted": 11188,
    "methyl": 25003,
    "ideas": 4784,
    "hyundai": 25983,
    "swallow": 10577,
    "appearances": 3922,
    "interpreter": 19555,
    "cramer": 29433,
    "##nami": 28987,
    "tropical": 5133,
    "mascara": 27700,
    "smell": 5437,
    "morale": 19292,
    "rom": 17083,
    "northeast": 4794,
    "reigns": 23481,
    "joaquin": 16877,
    "giro": 19226,
    "bernstein": 18862,
    "bodyguards": 25681,
    "transaction": 12598,
    "isla": 25340,
    "thorough": 16030,
    "·": 1087,
    "tapes": 13324,
    "##gc": 18195,
    "mali": 16007,
    "nouns": 19211,
    "##ou": 7140,
    "##lum": 12942,
    "implement": 10408,
    "##lio": 12798,
    "beat": 3786,
    "##mble": 19661,
    "##rino": 17815,
    "bangladeshi": 24267,
    "[unused983]": 988,
    "##umble": 26607,
    "1609": 28058,
    "##tral": 21493,
    "##erie": 17378,
    "ernest": 8471,
    "technologies": 6786,
    "mariana": 22097,
    "israeli": 5611,
    "flaw": 28450,
    "orioles": 18893,
    "boasted": 23390,
    "reuben": 17294,
    "skinny": 15629,
    "disturbing": 14888,
    "jewelry": 11912,
    "##mous": 27711,
    "conform": 23758,
    "warriors": 6424,
    "dual": 7037,
    "ordering": 13063,
    "cullen": 19925,
    "##tree": 13334,
    "wanna": 10587,
    "iteration": 27758,
    "patrons": 13497,
    "mk": 12395,
    "stuck": 5881,
    "skipper": 23249,
    "resulting": 4525,
    "hotel": 3309,
    "sergio": 13983,
    "composite": 12490,
    "realization": 12393,
    "indigo": 22472,
    "weary": 16040,
    "ops": 23092,
    "overture": 25052,
    "dwarves": 29281,
    "##lyn": 9644,
    "insulting": 23979,
    "mcintosh": 29052,
    "dartmouth": 16960,
    "lava": 13697,
    "stating": 5517,
    "realizes": 10919,
    "wiley": 18825,
    "licensed": 7000,
    "##mony": 22847,
    "##gal": 9692,
    "##ference": 25523,
    "##neil": 27276,
    "[unused627]": 632,
    "donaldson": 23164,
    "consumed": 10202,
    "norris": 15466,
    "pollock": 25218,
    "##ா": 29931,
    "gram": 13250,
    "##oku": 21940,
    "earl": 4656,
    "esther": 14631,
    "charms": 24044,
    "wikipedia": 16948,
    "reclamation": 27389,
    "nominations": 9930,
    "meetings": 6295,
    "relocating": 26811,
    "townspeople": 27938,
    "permits": 14245,
    "dixie": 18910,
    "congregational": 20809,
    "chorus": 7165,
    "throws": 11618,
    "ward": 4829,
    "primate": 25662,
    "laval": 26205,
    "##ees": 10285,
    "##lander": 22691,
    "ornaments": 24005,
    "notes": 3964,
    "simpson": 9304,
    "infringement": 20701,
    "astronomer": 15211,
    "superliga": 25922,
    "年": 1840,
    "norwood": 22804,
    "besides": 4661,
    "cds": 14340,
    "renegade": 28463,
    "include": 2421,
    "seaman": 21626,
    "resume": 13746,
    "cyril": 16049,
    "jagger": 25827,
    "1917": 4585,
    "transmit": 19818,
    "basin": 6403,
    "creeks": 24974,
    "nec": 26785,
    "prominently": 14500,
    "##zel": 12638,
    "furnishings": 23127,
    "marital": 23143,
    "[unused778]": 783,
    "surfaces": 9972,
    "1675": 27194,
    "rotherham": 27456,
    "trips": 9109,
    "d": 1040,
    "admitting": 17927,
    "atom": 13787,
    "playhouse": 17408,
    "opposing": 10078,
    "strung": 23509,
    "##ult": 11314,
    "nylon": 27201,
    "strategic": 6143,
    "complementary": 21053,
    "broker": 20138,
    "pizza": 10733,
    "syndrome": 8715,
    "seen": 2464,
    "university": 2118,
    "##uating": 24133,
    "evil": 4763,
    "honda": 11990,
    "giovanni": 9136,
    "gaze": 3657,
    "##ylus": 18871,
    "##lle": 6216,
    "41st": 24233,
    "persistence": 28297,
    "##lem": 16930,
    "##白": 30441,
    "brain": 4167,
    "##ड": 29857,
    "draining": 19689,
    "contributor": 12130,
    "identifiable": 27800,
    "room": 2282,
    "##rga": 28921,
    "bathurst": 21897,
    "terrorists": 15554,
    "ip": 12997,
    "presently": 12825,
    "carlos": 5828,
    "piled": 17835,
    "databases": 17881,
    "##宇": 30345,
    "he": 2002,
    "sudden": 5573,
    "gravel": 11127,
    "oriental": 11481,
    "hulk": 16009,
    "older": 3080,
    "qui": 21864,
    "packaged": 21972,
    "misses": 22182,
    "##年": 30366,
    "sai": 18952,
    "peerage": 18760,
    "intervening": 26623,
    "indirectly": 17351,
    "##llis": 21711,
    "ज": 1319,
    "convenient": 14057,
    "[unused376]": 381,
    "adaptations": 17241,
    "origins": 7321,
    "##侍": 30291,
    "##rew": 15603,
    "cummings": 20750,
    "reactive": 22643,
    "##ม": 29951,
    "shoot": 5607,
    "mantra": 25951,
    "blocking": 10851,
    "masses": 11678,
    "diplomat": 11125,
    "exceeds": 23651,
    "mirage": 21483,
    "void": 11675,
    "inc": 4297,
    "granada": 16553,
    "aren": 4995,
    "darling": 9548,
    "helps": 7126,
    "set": 2275,
    "parole": 17393,
    "##cliffe": 18115,
    "slowing": 18068,
    "erroneously": 29411,
    "comrade": 27661,
    "bc": 4647,
    "particles": 9309,
    "trap": 8132,
    "kiev": 12100,
    "prestigious": 8919,
    "horde": 21038,
    "##ular": 7934,
    "includes": 2950,
    "gain": 5114,
    "[unused267]": 272,
    "gathered": 5935,
    "kicking": 10209,
    "evident": 10358,
    "hurried": 9520,
    "france": 2605,
    "elle": 15317,
    "##tory": 7062,
    "##ela": 10581,
    "mar": 9388,
    "##oj": 29147,
    "raced": 8255,
    "tuck": 18029,
    "shit": 4485,
    "¾": 1093,
    "##phila": 26083,
    "horatio": 27752,
    "##rrado": 27933,
    "[unused130]": 135,
    "created": 2580,
    "priced": 21125,
    "via": 3081,
    "##kova": 18810,
    "##rly": 21194,
    "nicholson": 16955,
    "##icative": 25184,
    "deliver": 8116,
    "trailers": 21389,
    "examines": 20798,
    "##ther": 12399,
    "marathi": 18388,
    "fabrication": 25884,
    "##ock": 7432,
    "tubes": 10868,
    "1719": 28162,
    "directorate": 13634,
    "野": 1963,
    "survive": 5788,
    "zee": 23727,
    "finland": 6435,
    "discrimination": 9147,
    "tapping": 15135,
    "grady": 19011,
    "samoa": 15075,
    "tension": 6980,
    "195": 17317,
    "worship": 7425,
    "follows": 4076,
    "[unused977]": 982,
    "伊": 1762,
    ">": 1028,
    "書": 1871,
    "##nary": 24041,
    "shouting": 11273,
    "unlikely": 9832,
    "absolutely": 7078,
    "television": 2547,
    "ʊ": 1132,
    "matthias": 17885,
    "##eyer": 20211,
    "convinces": 19480,
    "gandhi": 12338,
    "hc": 16731,
    "##rant": 17884,
    "marne": 25823,
    "traversed": 27797,
    "honest": 7481,
    "authenticity": 21452,
    "[unused892]": 897,
    "incarcerated": 23995,
    "[unused123]": 128,
    "usaf": 18531,
    "##kot": 23342,
    "registered": 5068,
    "mania": 29310,
    "joint": 4101,
    "heidelberg": 16793,
    "168": 16923,
    "dennis": 6877,
    "380": 17014,
    "called": 2170,
    "organs": 11595,
    "randy": 9744,
    "johanna": 21498,
    "lazarus": 23623,
    "ウ": 1696,
    "dans": 18033,
    "##eurs": 26744,
    "bounty": 17284,
    "climax": 14463,
    "##ต": 29947,
    "obscured": 23649,
    "定": 1822,
    "sticks": 12668,
    "brush": 8248,
    "##bra": 10024,
    "##ators": 18926,
    "haiti": 12867,
    "herbs": 17561,
    "##kari": 20224,
    "catholic": 3234,
    "cavity": 17790,
    "##lian": 15204,
    "forward": 2830,
    "intent": 7848,
    "cat": 4937,
    "1902": 5774,
    "poems": 5878,
    "lights": 4597,
    "hewitt": 19482,
    "views": 5328,
    "formulated": 19788,
    "deng": 26957,
    "transformers": 19081,
    "comparing": 13599,
    "##fc": 11329,
    "innocence": 12660,
    "romeo": 12390,
    "yes": 2748,
    "illusions": 24883,
    "toes": 10393,
    "tracked": 12808,
    "treating": 12318,
    "associate": 5482,
    "occasion": 6686,
    "chilly": 24222,
    "elves": 16980,
    "whatsoever": 18971,
    "preparation": 7547,
    "ₙ": 1568,
    "1690": 24765,
    "##vered": 25896,
    "brawl": 23244,
    "punishments": 29115,
    "limit": 5787,
    "vin": 19354,
    "ghent": 24202,
    "曲": 1870,
    "representation": 6630,
    "andhra": 14065,
    "exclusive": 7262,
    "[unused488]": 493,
    "jonas": 10680,
    "##tour": 21163,
    "penthouse": 22855,
    "##pass": 15194,
    "virtually": 8990,
    "siding": 17326,
    "[unused510]": 515,
    "airfields": 25278,
    "##gist": 24063,
    "unconscious": 9787,
    "judaism": 13725,
    "attested": 18470,
    "dudley": 12648,
    "##mis": 15630,
    "praised": 5868,
    "composing": 16572,
    "parish": 3583,
    "courageous": 26103,
    "bone": 5923,
    "antiques": 27763,
    "ethiopia": 11154,
    "293": 26953,
    "[unused920]": 925,
    "##ive": 3512,
    "##biotic": 26591,
    "remix": 6136,
    "darby": 25844,
    "sockets": 27540,
    "longing": 15752,
    "##gina": 20876,
    "堂": 1805,
    "##rak": 16555,
    "mounting": 15986,
    "screw": 11224,
    "##utter": 26878,
    "siena": 23754,
    "##vina": 17948,
    "##ha": 3270,
    "bin": 8026,
    "feldman": 26908,
    "assigns": 24022,
    "allergic": 27395,
    "deter": 28283,
    "1823": 12522,
    "gorgeous": 9882,
    "cure": 9526,
    "jerome": 11120,
    "submit": 12040,
    "howling": 22298,
    "terrified": 10215,
    "leaking": 24325,
    "compelling": 17075,
    "maddox": 22730,
    "##ք": 29786,
    "competed": 3879,
    "stacks": 20829,
    "electronics": 8139,
    "taboo": 27505,
    "falsely": 23123,
    "##issa": 21205,
    "475": 28245,
    "277": 25578,
    "134": 15170,
    "jubilee": 13078,
    "rooster": 27681,
    "aback": 26575,
    "##cology": 19824,
    "binary": 12441,
    "helpless": 13346,
    "18th": 4985,
    "##haling": 23896,
    "[unused795]": 800,
    "component": 6922,
    "pondered": 28347,
    "literal": 18204,
    "sticky": 15875,
    "dozens": 9877,
    "neurological": 23130,
    "helens": 24074,
    "josef": 12947,
    "traveling": 7118,
    "minneapolis": 11334,
    "speakers": 7492,
    "pumpkin": 25730,
    "##ears": 26492,
    "theta": 23963,
    "manufactures": 22027,
    "forearm": 16148,
    "£1": 14534,
    "turrets": 21088,
    "dealers": 16743,
    "listed": 3205,
    "1881": 7005,
    "cuba": 7394,
    "suits": 11072,
    "mcc": 23680,
    "rational": 11581,
    "peak": 4672,
    "extended": 3668,
    "blurred": 18449,
    "1942": 3758,
    "passageway": 27336,
    "persians": 27229,
    "groans": 27778,
    "##arian": 12199,
    "##dda": 25062,
    "[unused42]": 43,
    "bayou": 24818,
    "button": 6462,
    "runes": 29161,
    "contrasted": 22085,
    "ᵇ": 1497,
    "fundamentally": 24670,
    "correctly": 11178,
    "rothschild": 19712,
    "marijuana": 16204,
    "##sed": 6924,
    "##gt": 13512,
    "##carriage": 21539,
    "salem": 10389,
    "jarvis": 21072,
    "[unused723]": 728,
    "soviet": 3354,
    "sous": 27411,
    "doorway": 7086,
    "##stellar": 29028,
    "marquette": 24223,
    "dams": 17278,
    "focus": 3579,
    "senator": 5205,
    "galway": 14370,
    "thrive": 25220,
    "approximate": 15796,
    "dumb": 12873,
    "rammed": 27653,
    "面": 1976,
    "yao": 23711,
    "nsw": 11524,
    "suppose": 6814,
    "##ban": 8193,
    "mystic": 17477,
    "recent": 3522,
    "shrugs": 23822,
    "relax": 9483,
    "##while": 19927,
    "##naut": 24619,
    "我": 1855,
    "##tment": 21181,
    "horror": 5469,
    "harsh": 8401,
    "##nally": 26827,
    "kemp": 20441,
    "ga": 11721,
    "tame": 24763,
    "reptiles": 20978,
    "governorate": 15162,
    "les": 4649,
    "georgie": 20280,
    "forbade": 27315,
    "navarro": 23524,
    "[unused530]": 535,
    "##urse": 28393,
    "ontario": 4561,
    "opener": 16181,
    "wadi": 28380,
    "mer": 21442,
    "stubble": 26816,
    "faber": 21720,
    "fortifications": 14507,
    "##estra": 26199,
    "tobias": 16858,
    "blinds": 28279,
    "braden": 27232,
    "##rer": 14544,
    "savanna": 22323,
    "condemned": 10033,
    "caden": 23600,
    "meritorious": 22053,
    "constitutional": 6543,
    "pits": 14496,
    "antoine": 12445,
    "hansen": 13328,
    "begins": 4269,
    "[unused517]": 522,
    "handler": 28213,
    "dani": 19522,
    "libraries": 8860,
    "rivalry": 10685,
    "joy": 6569,
    "tenth": 7891,
    "april": 2258,
    "##pathic": 25940,
    "##pts": 22798,
    "##mps": 25370,
    "feminism": 20050,
    "tao": 20216,
    "##color": 18717,
    "pablo": 11623,
    "##yang": 12198,
    "genuinely": 15958,
    "bombings": 20109,
    "search": 3945,
    "zev": 27909,
    "looming": 23430,
    "darwin": 11534,
    "carnage": 27450,
    "##iaceae": 23357,
    "##felt": 26675,
    "het": 21770,
    "bitten": 19026,
    "intact": 10109,
    "dwellers": 28857,
    "blues": 5132,
    "nave": 12847,
    "wan": 14071,
    "ce": 8292,
    "##ffi": 26989,
    "hissing": 26386,
    "nordic": 13649,
    "##tu": 8525,
    "ada": 15262,
    "relevant": 7882,
    "cushions": 27205,
    "[unused533]": 538,
    "cervical": 28711,
    "liberties": 18271,
    "perfection": 15401,
    "##der": 4063,
    "narrative": 7984,
    "appealing": 16004,
    "##nded": 25848,
    "leisure": 12257,
    "accommodated": 28959,
    "hitchcock": 19625,
    "ramos": 18882,
    "##copic": 26461,
    "sichuan": 20980,
    "##bes": 12681,
    "prehistoric": 14491,
    "toyota": 11742,
    "prof": 11268,
    "sable": 23492,
    "mei": 19734,
    "whale": 13156,
    "founded": 2631,
    "staggering": 26233,
    "nancy": 7912,
    "41": 4601,
    "stationed": 8895,
    "##haya": 26115,
    "chained": 22075,
    "altered": 8776,
    "kelley": 19543,
    "fungi": 15289,
    "haifa": 21303,
    "perth": 9300,
    "##ener": 24454,
    "penis": 19085,
    "chimneys": 28885,
    "70th": 26934,
    "royals": 15426,
    "barley": 21569,
    "jian": 29214,
    "turnover": 20991,
    "inducted": 8120,
    "miracle": 9727,
    "maria": 3814,
    "[unused989]": 994,
    "##athic": 20972,
    "confronted": 12892,
    "wickets": 10370,
    "##zh": 27922,
    "atlantic": 4448,
    "##風": 30503,
    "[unused497]": 502,
    "springs": 6076,
    "refurbished": 18662,
    "squid": 26852,
    "##isms": 22556,
    "zoological": 26168,
    "open": 2330,
    "fastened": 24009,
    "##mide": 24284,
    "##義": 30462,
    "conical": 24750,
    "tainted": 26392,
    "##м": 29745,
    "tread": 29449,
    "sparkle": 26831,
    "manufacturing": 5814,
    "rubs": 28860,
    "quarries": 27069,
    "hong": 4291,
    "timetable": 23839,
    "##sam": 21559,
    "posture": 16819,
    "strict": 9384,
    "##awan": 25903,
    "stalled": 20659,
    "jameson": 22324,
    "qc": 25196,
    "##active": 19620,
    "buckingham": 17836,
    "hmm": 17012,
    "baptiste": 17329,
    "promoting": 7694,
    "bio": 16012,
    "##isson": 24077,
    "willem": 18811,
    "curled": 8188,
    "magician": 16669,
    "featherweight": 27145,
    "##iu": 17922,
    "operating": 4082,
    "accuse": 26960,
    "second": 2117,
    "gazing": 16448,
    "hat": 6045,
    "doris": 15467,
    "collisions": 28820,
    "proponent": 22488,
    "favourable": 18731,
    "##rya": 20444,
    "groundbreaking": 23222,
    "teams": 2780,
    "money": 2769,
    "offenders": 19591,
    "##enter": 29110,
    "##pse": 29251,
    "corrupted": 27279,
    "shattered": 10909,
    "hugged": 10308,
    "speeding": 21485,
    "empires": 23560,
    "factories": 11123,
    "innings": 7202,
    "redundant": 21707,
    "greens": 15505,
    "locks": 11223,
    "dreamed": 13830,
    "metallic": 12392,
    "ethel": 19180,
    "airplane": 13297,
    "pokemon": 20421,
    "torpedo": 9862,
    "contracting": 21012,
    "sends": 10255,
    "qin": 19781,
    "##ия": 23483,
    "barns": 25684,
    "tan": 9092,
    "forget": 5293,
    "torch": 12723,
    "indicating": 8131,
    "revolt": 10073,
    "amazingly": 29350,
    "po": 13433,
    "下": 1743,
    "slender": 10944,
    "recovered": 6757,
    "seasonal": 12348,
    "henrik": 18745,
    "480": 17295,
    "arising": 17707,
    "insurgents": 20541,
    "supplying": 17731,
    "oblivious": 18333,
    "shri": 14880,
    "lure": 17256,
    "margaret": 5545,
    "207": 19843,
    "[unused725]": 730,
    "##mal": 9067,
    "applies": 12033,
    "cup": 2452,
    "sabah": 22515,
    "##rden": 18246,
    "acidic": 24171,
    "demonstrated": 7645,
    "shifter": 18189,
    "moody": 14434,
    "shea": 16994,
    "fairs": 21947,
    "clive": 14675,
    "##mmel": 29033,
    "320": 13710,
    "##อ": 29957,
    "airplanes": 24042,
    "267": 25491,
    "shots": 7171,
    "infected": 10372,
    "kia": 27005,
    "dillon": 14602,
    "lizard": 15450,
    "propose": 16599,
    "villains": 16219,
    "##ir": 4313,
    "military": 2510,
    "##fies": 14213,
    "bulldog": 28628,
    "##lani": 21141,
    "lust": 11516,
    "harder": 6211,
    "seed": 6534,
    "drawings": 9254,
    "kaufman": 23699,
    "falcon": 11684,
    "holland": 7935,
    "1941": 3874,
    "lobbying": 19670,
    "creepy": 17109,
    "guidance": 8606,
    "bianca": 18051,
    "blows": 13783,
    "discount": 19575,
    "##inga": 28234,
    "results": 3463,
    "sting": 12072,
    "天": 1811,
    "reproduce": 21376,
    "improvement": 7620,
    "envisioned": 18035,
    "much": 2172,
    "vu": 24728,
    "replication": 21647,
    "viz": 26619,
    "##dee": 26095,
    "fathers": 11397,
    "great": 2307,
    "walkway": 19467,
    "capturing": 11847,
    "reminder": 14764,
    "ℝ": 1579,
    "1863": 6899,
    "histoire": 20088,
    "luther": 9678,
    "locking": 14889,
    "differing": 16965,
    "##cier": 19562,
    "incarnation": 15715,
    "consolation": 24831,
    "##ʻ": 29711,
    "packages": 14555,
    "sprawled": 21212,
    "##„": 30060,
    "##ե": 29770,
    "bills": 8236,
    "mushrooms": 23827,
    "##uso": 26658,
    "celaena": 29252,
    "[unused372]": 377,
    "solemn": 19487,
    "muse": 18437,
    "1875": 7466,
    "##him": 14341,
    "iraq": 5712,
    "cooke": 16546,
    "offensive": 5805,
    "warming": 12959,
    "sentiment": 15792,
    "kwan": 27741,
    "##aver": 22208,
    "kruger": 27823,
    "appropriate": 6413,
    "279": 25745,
    "labour": 4428,
    "广": 1842,
    "ezra": 16245,
    "დ": 1441,
    "consulting": 10552,
    "gubernatorial": 19100,
    "purported": 27023,
    "secured": 7119,
    "235": 17825,
    "flexed": 24244,
    "chocolate": 7967,
    "can": 2064,
    "##rdon": 28176,
    "ryan": 4575,
    "shredded": 29022,
    "botanical": 13194,
    "spatial": 13589,
    "kay": 10905,
    "creditors": 23112,
    "moniker": 21937,
    "hearst": 25419,
    "kashmir": 13329,
    "##ances": 26755,
    "freezing": 12809,
    "implementation": 7375,
    "##三": 30267,
    "lobes": 24423,
    "rent": 9278,
    "merchandise": 16359,
    "evans": 6473,
    "glamour": 22439,
    "patriot": 16419,
    "bernardo": 21175,
    "cod": 19429,
    "investor": 14316,
    "proceedings": 8931,
    "soothe": 28384,
    "sacred": 6730,
    "士": 1807,
    "cassandra": 15609,
    "##dur": 24979,
    "buffalo": 6901,
    "美": 1935,
    "pei": 26850,
    "1b": 26314,
    "identity": 4767,
    "favorite": 5440,
    "rite": 14034,
    "##gned": 19225,
    "stan": 9761,
    "ھ": 1307,
    "##yana": 16811,
    "aggressive": 9376,
    "##igan": 10762,
    "quadrant": 29371,
    "unionist": 17104,
    "exchanges": 15800,
    "perfect": 3819,
    "##ᵒ": 30039,
    "moore": 5405,
    "grape": 14722,
    "thinkers": 24762,
    "runners": 7190,
    "##ds": 5104,
    "ʳ": 1142,
    "credit": 4923,
    "fulton": 17049,
    "bach": 10384,
    "clashes": 17783,
    "উ": 1350,
    "##ᄆ": 29995,
    "election": 2602,
    "hurley": 25124,
    "outburst": 27719,
    "queer": 19483,
    "[unused938]": 943,
    "este": 28517,
    "softly": 5238,
    "centenary": 17705,
    "rhys": 13919,
    "spices": 21729,
    "inspiration": 7780,
    "##ny": 4890,
    "continent": 9983,
    "kentucky": 5612,
    "forum": 7057,
    "occurring": 10066,
    "##ic": 2594,
    "panda": 25462,
    "grande": 9026,
    "developing": 4975,
    "doo": 20160,
    "##lled": 11001,
    "fenton": 27096,
    "entirety": 15700,
    "118": 12963,
    "##語": 30476,
    "disappearing": 14489,
    "jurassic": 19996,
    "##ific": 18513,
    "##rro": 18933,
    "predictable": 21425,
    "##س": 29824,
    "rubbish": 29132,
    "implemented": 7528,
    "simone": 14072,
    "racehorse": 25068,
    "[unused615]": 620,
    "bit": 2978,
    "technicians": 20202,
    "potent": 16834,
    "alternately": 23554,
    "zone": 4224,
    "assassinated": 16370,
    "press": 2811,
    "##stein": 8602,
    "methods": 4725,
    "visit": 3942,
    "##rricular": 21231,
    "austrian": 6161,
    "motorway": 13119,
    "boot": 9573,
    "reason": 3114,
    "│": 1616,
    "jolt": 22538,
    "servants": 8858,
    "peking": 27057,
    "48": 4466,
    "ex": 4654,
    "mixed": 3816,
    "andreas": 12460,
    "battlefield": 11686,
    "subset": 16745,
    "midway": 12213,
    "tehran": 13503,
    "##thic": 23048,
    "sounded": 5015,
    "contiguous": 25177,
    "warmed": 17336,
    "mclean": 17602,
    "崎": 1834,
    "##dorff": 26559,
    "1805": 13126,
    "geology": 13404,
    "scented": 25738,
    "harvard": 5765,
    "supreme": 4259,
    "##ura": 4648,
    "garnered": 13056,
    "spends": 15970,
    "occupational": 16928,
    "partridge": 26079,
    "alias": 14593,
    "##sius": 24721,
    "№": 1578,
    "nocturnal": 23789,
    "juan": 5348,
    "filters": 17736,
    "rayon": 26810,
    "##}": 29642,
    "beatrice": 14807,
    "directors": 5501,
    "reorganization": 17118,
    "marta": 18950,
    "##antes": 24985,
    "caressed": 21473,
    "augustine": 14060,
    "ministerial": 18645,
    "##ui": 10179,
    "higgins": 13466,
    "corpse": 11547,
    "##hae": 25293,
    "surfer": 27747,
    "code": 3642,
    "##rick": 11285,
    "athletic": 5188,
    "clergy": 11646,
    "goose": 13020,
    "nuclei": 23767,
    "desperation": 15561,
    "##dham": 17661,
    "basket": 10810,
    "crystalline": 24628,
    "rental": 12635,
    "explosives": 14792,
    "colin": 6972,
    "generating": 11717,
    "vaulted": 24616,
    "izzy": 16699,
    "youth": 3360,
    "kerr": 14884,
    "##puted": 29462,
    "1570": 28881,
    "cricket": 4533,
    "indians": 6505,
    "##yson": 25385,
    "goa": 15244,
    "concussion": 23159,
    "wednesday": 9317,
    "[unused451]": 456,
    "truth": 3606,
    "martian": 20795,
    "poker": 11662,
    "##ذ": 29822,
    "isabelle": 13942,
    "burnt": 11060,
    "signaling": 14828,
    "cursing": 19752,
    "membrane": 10804,
    "moshe": 27123,
    "শ": 1374,
    "stupidity": 28072,
    "aug": 15476,
    "319": 26499,
    "mateo": 19327,
    "evangelical": 11295,
    "excuses": 21917,
    "appears": 3544,
    "wrongly": 29116,
    "staggered": 14648,
    "nellie": 25365,
    "##lly": 9215,
    "##bat": 14479,
    "elastic": 21274,
    "died": 2351,
    "cooked": 12984,
    "substitute": 7681,
    "##point": 8400,
    "##viere": 27087,
    "concentrated": 8279,
    "##10": 10790,
    "trace": 7637,
    "dr": 2852,
    "personnel": 5073,
    "##movable": 25661,
    "shankar": 17429,
    "##ier": 3771,
    "國": 1800,
    "partnership": 5386,
    "effectiveness": 12353,
    "sufficiently": 12949,
    "powder": 9898,
    "punish": 16385,
    "##cliff": 27580,
    "##vale": 17479,
    "##gui": 25698,
    "brad": 8226,
    "organisation": 5502,
    "territorial": 7894,
    "arson": 24912,
    "ム": 1725,
    "jolted": 28801,
    "[unused349]": 354,
    "planner": 24555,
    "protestant": 8330,
    "sample": 7099,
    "127": 13029,
    "hook": 8103,
    "##ष": 29873,
    "insulation": 25710,
    "##pre": 28139,
    "##90": 21057,
    "##board": 6277,
    "distant": 6802,
    "bundesliga": 14250,
    "conceded": 15848,
    "dreaming": 12802,
    "lending": 18435,
    "glaciers": 21193,
    "inmate": 24467,
    "goran": 28356,
    "##ein": 12377,
    "courthouse": 10816,
    "comte": 19758,
    "milk": 6501,
    "headlines": 19377,
    "nguyen": 16577,
    "irritated": 15560,
    "##isch": 19946,
    "myles": 27056,
    "caleb": 10185,
    "deputy": 4112,
    "##lies": 11983,
    "##americana": 27026,
    "##あ": 30172,
    "griffith": 14135,
    "curry": 15478,
    "nu": 16371,
    "]": 1033,
    "ᴺ": 1494,
    "minions": 28071,
    "actually": 2941,
    "boundaries": 7372,
    "budgets": 26178,
    "西": 1947,
    "dorchester": 27252,
    "kevin": 4901,
    "contaminated": 19450,
    "##ב": 29789,
    "swings": 18755,
    "externally": 27223,
    "note": 3602,
    "nanny": 19174,
    "blackpool": 17444,
    "validity": 16406,
    "##raph": 24342,
    "##iss": 14643,
    "##phine": 20738,
    "clenching": 23970,
    "ض": 1285,
    "##mmy": 18879,
    "master": 3040,
    "##₱": 30103,
    "sato": 20251,
    "##metric": 12589,
    "which": 2029,
    "positioning": 19120,
    "achieved": 4719,
    "david": 2585,
    "partnerships": 13797,
    "wicket": 12937,
    "eli": 12005,
    "hearings": 19153,
    "megan": 12756,
    "salford": 23001,
    "##tton": 15474,
    "becca": 22140,
    "##cola": 26289,
    "ර": 1405,
    "##zation": 9276,
    "##ভ": 29905,
    "practitioner": 18742,
    "oh": 2821,
    "pastor": 9220,
    "attain": 18759,
    "##elial": 24587,
    "rebellious": 22614,
    "，": 1989,
    "species": 2427,
    "neptune": 21167,
    "soothing": 16684,
    "repetition": 23318,
    "branded": 11180,
    "##osomal": 27642,
    "oxidation": 19577,
    "derby": 7350,
    "shaft": 9093,
    "criteria": 9181,
    "pradesh": 7970,
    "##hine": 14014,
    "guernsey": 24640,
    "##az": 10936,
    "[unused712]": 717,
    "carriage": 9118,
    "合": 1792,
    "slot": 10453,
    "[unused779]": 784,
    "boasts": 21979,
    "##tya": 21426,
    "良": 1938,
    "privacy": 9394,
    "values": 5300,
    "1747": 24522,
    "一": 1740,
    "american": 2137,
    "however": 2174,
    "justification": 19777,
    "whimpered": 26184,
    "imperfect": 29238,
    "symmetrical": 23476,
    "outfielder": 21033,
    "[unused871]": 876,
    "spaced": 19835,
    "##dion": 29573,
    "##*": 29621,
    "bombardment": 10400,
    "advancing": 10787,
    "##jian": 27685,
    "##mata": 21022,
    "sci": 16596,
    "(": 1006,
    "class": 2465,
    "prepare": 7374,
    "sincerely": 25664,
    "##overs": 24302,
    "warmly": 22775,
    "conventional": 7511,
    "##евич": 22646,
    "senior": 3026,
    "limited": 3132,
    "consider": 5136,
    "campos": 26925,
    "hanoi": 24809,
    "enforced": 16348,
    "cuckoo": 29010,
    "weakening": 22031,
    "243": 22884,
    "1814": 10977,
    "spines": 20352,
    "##ף": 29806,
    "##陳": 30498,
    "##ort": 11589,
    "earthquake": 8372,
    "nazi": 6394,
    "eureka": 21142,
    "accelerated": 14613,
    "identification": 8720,
    "unit": 3131,
    "butte": 25024,
    "dowry": 29603,
    "emmy": 10096,
    "##dalen": 26414,
    "jacques": 7445,
    "ta": 11937,
    "direct": 3622,
    "expenditures": 22697,
    "##5": 2629,
    "celebrations": 12035,
    "goat": 13555,
    "piston": 16733,
    "[unused391]": 396,
    "歌": 1886,
    "observers": 14009,
    "い": 1647,
    "offs": 12446,
    "##ـ": 29832,
    "invalid": 19528,
    "kimberley": 25004,
    "⅔": 1582,
    "compete": 5566,
    "kristina": 28802,
    "northamptonshire": 21367,
    "risked": 22374,
    "televised": 13762,
    "widen": 21255,
    "antiquity": 16433,
    "spectator": 21027,
    "##vision": 17084,
    "##hen": 10222,
    "institutions": 4896,
    "mole": 16709,
    "[unused769]": 774,
    "empty": 4064,
    "appleton": 26050,
    "pilgrimage": 14741,
    "obviously": 5525,
    "abnormal": 19470,
    "##rito": 28414,
    "ceded": 19705,
    "empathy": 26452,
    "##rath": 27362,
    "contra": 24528,
    "rediscovered": 26733,
    "prostate": 25086,
    "fairly": 7199,
    "jenks": 15119,
    "tumors": 21434,
    "plastics": 26166,
    "lausanne": 22256,
    "postwar": 20013,
    "choral": 14564,
    "rightful": 27167,
    "reproduced": 22296,
    "rounding": 26939,
    "praise": 8489,
    "sympathetic": 13026,
    "regretted": 18991,
    "terrestrial": 12350,
    "##qa": 19062,
    "richmond": 6713,
    "tapestry": 25213,
    "carpenter": 10533,
    "inception": 12149,
    "lords": 8140,
    "[unused319]": 324,
    "strains": 18859,
    "optimal": 15502,
    "bedford": 12003,
    "##lei": 23057,
    "##tray": 28473,
    "##ctions": 22014,
    "‘": 1520,
    "oversight": 15709,
    "relationships": 6550,
    "badly": 6649,
    "trailed": 11145,
    "enormous": 8216,
    "##ados": 28118,
    "baffled": 29088,
    "armor": 8177,
    "constabulary": 23791,
    "practical": 6742,
    "shrub": 15751,
    "donations": 11440,
    "similarly": 6660,
    "wexford": 23121,
    "##ouin": 25058,
    "banks": 5085,
    "carmine": 18791,
    "##lmer": 23398,
    "220": 10545,
    "tempo": 13657,
    "1625": 26263,
    "tobacco": 9098,
    "awards": 2982,
    "##folding": 21508,
    "doha": 26528,
    "afterlife": 25115,
    "prodigy": 28334,
    "し": 1657,
    "montpellier": 28153,
    "af": 21358,
    "rafe": 15819,
    "##rland": 18324,
    "greeting": 14806,
    "pie": 11345,
    "congress": 3519,
    "ill": 5665,
    "##go": 3995,
    "tracking": 9651,
    "##arns": 23549,
    "outstanding": 5151,
    "engulfed": 24692,
    "abolished": 8961,
    "feudal": 16708,
    "wolfgang": 13865,
    "##atin": 20363,
    "##wire": 20357,
    "resisting": 22363,
    "ol": 19330,
    "wink": 16837,
    "continuing": 5719,
    "visuals": 26749,
    "flying": 3909,
    "bentley": 15988,
    "mode": 5549,
    "cosmic": 14448,
    "##jm": 24703,
    "aesthetic": 12465,
    "systematic": 11778,
    "##oki": 23212,
    "##das": 8883,
    "guards": 4932,
    "icao": 18055,
    "synonym": 10675,
    "live": 2444,
    "ist": 21541,
    "վ": 1235,
    "##nent": 21576,
    "kramer": 16322,
    "ᄐ": 1467,
    "bonds": 9547,
    "sa": 7842,
    "contamination": 18701,
    "icons": 18407,
    "acacia": 24766,
    "ʃ": 1130,
    "hymns": 17777,
    "##osity": 25949,
    "##ductive": 26638,
    "billed": 14843,
    "creeping": 18266,
    "slipping": 11426,
    "nah": 20976,
    "##³": 18107,
    "advantage": 5056,
    "rupert": 14641,
    "authorised": 19256,
    "##gens": 21230,
    "italianate": 25302,
    "cosmopolitan": 24686,
    "caressing": 25296,
    "accounts": 6115,
    "patterns": 7060,
    "rude": 12726,
    "superficial": 23105,
    "##神": 30451,
    "piercing": 14628,
    "beetle": 7813,
    "adolph": 28564,
    "[unused449]": 454,
    "scrubbed": 27820,
    "outta": 24955,
    "##pot": 11008,
    "##sett": 21678,
    "dictatorship": 18944,
    "liberals": 13350,
    "triggered": 13330,
    "##女": 30341,
    "430": 19540,
    "[unused469]": 474,
    "##ヘ": 30247,
    "videos": 6876,
    "##rata": 14660,
    "corrupt": 13593,
    "##lar": 8017,
    "magdalene": 26890,
    "doi": 9193,
    "spill": 14437,
    "##み": 30204,
    "ipod": 26322,
    "hannah": 8410,
    "hole": 4920,
    "283": 25504,
    "flashing": 12659,
    "carmen": 11425,
    "##ক": 29889,
    "unusual": 5866,
    "spotlight": 17763,
    "frames": 11048,
    "needs": 3791,
    "human": 2529,
    "##onale": 22823,
    "aerial": 9682,
    "unpublished": 19106,
    "westminster": 9434,
    "[unused226]": 231,
    "##kt": 25509,
    "##wd": 21724,
    "motif": 16226,
    "arrests": 17615,
    "##த": 29921,
    "colombo": 16224,
    "maureen": 19167,
    "##太": 30338,
    "dream": 3959,
    "pictorial": 28304,
    "##power": 11452,
    "##36": 21619,
    "lady": 3203,
    "savings": 10995,
    "profitable": 15282,
    "hybrids": 23376,
    "merchant": 6432,
    "ra": 10958,
    "##uck": 12722,
    "bearing": 7682,
    "##ones": 21821,
    "oliver": 6291,
    "berries": 22681,
    "##tive": 6024,
    "foreign": 3097,
    "##ton": 2669,
    "rev": 7065,
    "pressed": 4508,
    "skater": 18815,
    "middlesex": 13654,
    "sabres": 26969,
    "[unused663]": 668,
    "testimony": 10896,
    "festivities": 21206,
    "ceremonial": 12961,
    "early": 2220,
    "aching": 14750,
    "##ete": 12870,
    "aquarium": 18257,
    "द": 1325,
    "drains": 18916,
    "asset": 11412,
    "ᵈ": 1498,
    "bodyguard": 16174,
    "rr": 25269,
    "currents": 14731,
    "lawrence": 5623,
    "—": 1517,
    "204": 19627,
    "interior": 4592,
    "shan": 17137,
    "あ": 1646,
    "##bar": 8237,
    "midlands": 13256,
    "compulsion": 27638,
    "supplemented": 20585,
    "does": 2515,
    "selected": 3479,
    "cumulative": 23260,
    "endelle": 29581,
    "##anda": 13832,
    "ceylon": 16447,
    "lush": 16299,
    "shed": 8328,
    "[unused84]": 85,
    "head": 2132,
    "##ridge": 9438,
    "foot": 3329,
    "thou": 15223,
    "##ت": 29817,
    "taunting": 29442,
    "श": 1336,
    "troll": 18792,
    "##titled": 21309,
    "##jer": 20009,
    "stayed": 4370,
    "##hila": 26415,
    "thread": 11689,
    "nestor": 25397,
    "galactic": 21375,
    "woo": 15854,
    "possessive": 22105,
    "insight": 12369,
    "yep": 15624,
    "cuthbert": 24583,
    "1727": 25350,
    "levin": 20206,
    "galley": 27124,
    "cottage": 9151,
    "metadata": 27425,
    "##ɹ": 29691,
    "annie": 8194,
    "call": 2655,
    "##chua": 26200,
    "dunn": 14145,
    "delightful": 26380,
    "##court": 13421,
    "[unused327]": 332,
    "sediment": 19671,
    "madden": 24890,
    "routines": 23964,
    "agitated": 21568,
    "##ₙ": 19110,
    "friendly": 5379,
    "collective": 7268,
    "recruited": 8733,
    "##aro": 10464,
    "draft": 4433,
    "invitation": 8468,
    "buchanan": 14349,
    "condition": 4650,
    "##ailed": 17440,
    "freight": 8441,
    "জ": 1358,
    "reprised": 22598,
    "attaining": 26615,
    "stamped": 20834,
    "##iensis": 27806,
    "encyclopedia": 12204,
    "fbi": 8495,
    "owe": 12533,
    "baking": 21522,
    "violence": 4808,
    "than": 2084,
    "written": 2517,
    "[unused806]": 811,
    "heel": 12073,
    "happens": 6433,
    "stiffened": 16090,
    "reformation": 13708,
    "edward": 3487,
    "jai": 17410,
    "atlantis": 16637,
    "scout": 7464,
    "relativity": 20805,
    "frustrated": 10206,
    "holiness": 27692,
    "opposed": 4941,
    "studies": 2913,
    "mentioning": 18625,
    "welsh": 6124,
    "hugely": 27564,
    "followed": 2628,
    "supported": 3569,
    "##dice": 24598,
    "1950": 3925,
    "tatar": 29241,
    "##ilation": 29545,
    "miller": 4679,
    "##л": 29436,
    "cola": 15270,
    "beech": 21760,
    "connacht": 27062,
    "gunslinger": 29274,
    "despised": 26626,
    "pediatric": 23614,
    "permit": 9146,
    "##missive": 27876,
    "thirties": 26313,
    "sham": 25850,
    "select": 7276,
    "canada": 2710,
    "ignorance": 18173,
    "##0": 2692,
    "##oia": 25463,
    "expose": 14451,
    "attempted": 4692,
    "circle": 4418,
    "##pro": 21572,
    "britannia": 24677,
    "ten": 2702,
    "lincoln": 5367,
    "abusive": 20676,
    "lucy": 7004,
    "kern": 22762,
    "maestro": 25270,
    "demetrius": 28367,
    "gabby": 27183,
    "pixel": 22138,
    "[unused156]": 161,
    "horst": 28565,
    "[unused119]": 124,
    "eduard": 20424,
    "pts": 19637,
    "##lization": 22731,
    "philanthropy": 29291,
    "##khar": 22510,
    "regulation": 7816,
    "chatting": 22331,
    "##tyn": 25680,
    "##nical": 20913,
    "bucks": 14189,
    "##ո": 29779,
    "graphical": 20477,
    "dil": 29454,
    "administrations": 27722,
    "king": 2332,
    "disperse": 28736,
    "[unused10]": 11,
    "purge": 24694,
    "microscope": 24635,
    "##sden": 27903,
    "dunlop": 27458,
    "freely": 10350,
    "angie": 14835,
    "cpc": 28569,
    "lucinda": 28261,
    "##ﬁ": 30510,
    "―": 1518,
    "int": 20014,
    "##apa": 22068,
    "teacher": 3836,
    "leaning": 6729,
    "doe": 18629,
    "barton": 12975,
    "fungal": 28079,
    "simulated": 23599,
    "resided": 12427,
    "[unused323]": 328,
    "##layer": 24314,
    "##<": 29629,
    "##ece": 26005,
    "saetan": 23515,
    "##加": 30305,
    "psychologist": 15034,
    "elemental": 19529,
    "sirens": 20675,
    "kade": 26159,
    "blaine": 20002,
    "##rial": 14482,
    "turnpike": 17116,
    "addressed": 8280,
    "[unused813]": 818,
    "sworn": 10741,
    "ro": 20996,
    "christians": 8135,
    "tonight": 3892,
    "loyal": 8884,
    "thayer": 25563,
    "##bahn": 16052,
    "marrying": 13516,
    "##!": 29612,
    "lancaster": 10237,
    "##oted": 27428,
    "87": 6584,
    "descendants": 8481,
    "comprehension": 26683,
    "canopy": 14582,
    "##bb": 10322,
    "##rma": 17830,
    "revised": 8001,
    "investigation": 4812,
    "meaning": 3574,
    "[unused218]": 223,
    "diffuse": 28105,
    "##oss": 15094,
    "styling": 20724,
    "regrets": 23161,
    "je": 15333,
    "##tha": 8322,
    "clothes": 4253,
    "laughing": 5870,
    "ashe": 13402,
    "darkened": 13755,
    "276": 25113,
    "joints": 17651,
    "##tow": 18790,
    "##iri": 15735,
    "dino": 22412,
    "distorted": 19112,
    "landed": 5565,
    "football": 2374,
    "delegate": 11849,
    "fulfill": 13883,
    "milos": 26038,
    "hourly": 21462,
    "93": 6109,
    "broadcasters": 18706,
    "rebuilding": 14584,
    "cot": 26046,
    "axe": 12946,
    "leaders": 4177,
    "statute": 11671,
    "ineffective": 20694,
    "banda": 24112,
    "faso": 22773,
    "sculptures": 10801,
    "##chule": 20269,
    "##fr": 19699,
    "犬": 1908,
    "crafts": 14030,
    "##zard": 26154,
    "passengers": 5467,
    "adelaide": 7364,
    "hilton": 15481,
    "prakash": 22233,
    "##och": 11663,
    "shivers": 28464,
    "1786": 17436,
    "medal": 3101,
    "provinces": 6941,
    "bargaining": 21990,
    "promoted": 3755,
    "##mming": 25057,
    "##tai": 15444,
    "##lifting": 26644,
    "directions": 7826,
    "##&": 29617,
    "ბ": 1439,
    "claiming": 6815,
    "intensely": 20531,
    "preparations": 12929,
    "passages": 13768,
    "backgrounds": 15406,
    "casa": 14124,
    "violinist": 16609,
    "seniors": 15995,
    "1911": 5184,
    "bison": 22285,
    "boxing": 8362,
    "у": 1198,
    "[unused852]": 857,
    "spies": 16794,
    "marriage": 3510,
    "##வ": 29930,
    "1930": 4479,
    "liberation": 7931,
    "nottinghamshire": 20126,
    "##aj": 13006,
    "う": 1648,
    "##bba": 22414,
    "keeps": 7906,
    "sykes": 23531,
    "##nator": 27413,
    "ramsey": 15092,
    "elaborate": 9603,
    "##piece": 11198,
    "mexican": 4916,
    "avenue": 3927,
    "payroll": 26854,
    "genoa": 15771,
    "fitting": 11414,
    "flawed": 25077,
    "##chfield": 22693,
    "parameter": 16381,
    "bois": 19651,
    "##vances": 26711,
    "qualification": 8263,
    "leeds": 7873,
    "england": 2563,
    "##ech": 15937,
    "##yl": 8516,
    "##gin": 11528,
    "vineyards": 20597,
    "nrl": 20686,
    "supplied": 8127,
    "christine": 10941,
    "avenge": 24896,
    "emigration": 20387,
    "176": 18561,
    "[unused47]": 48,
    "domesday": 22310,
    "wow": 10166,
    "##rite": 17625,
    "samples": 8168,
    "##nce": 5897,
    "malaysian": 11843,
    "shafts": 20542,
    "colbert": 23928,
    "higher": 3020,
    "##ities": 6447,
    "cass": 16220,
    "lobe": 21833,
    "arbitrary": 15275,
    "djs": 23837,
    "poorer": 27196,
    "triangle": 9546,
    "advantages": 12637,
    "##egan": 20307,
    "clandestine": 24450,
    "[unused556]": 561,
    "##₀": 17110,
    "researchers": 6950,
    "including": 2164,
    "coiled": 24599,
    "intensified": 15767,
    "sonny": 13584,
    "cleansing": 26799,
    "clarke": 8359,
    "worsened": 27622,
    "afterward": 9707,
    "##aged": 18655,
    "##lster": 29576,
    "urine": 17996,
    "[unused298]": 303,
    "debuts": 26740,
    "burr": 22715,
    "upland": 25770,
    "informally": 21858,
    "collaborating": 20295,
    "haven": 4033,
    "##person": 27576,
    "こ": 1655,
    "modify": 19933,
    "prototype": 8773,
    "loosely": 11853,
    "1086": 28196,
    "upheld": 16813,
    "[unused471]": 476,
    "experiment": 7551,
    "reduces": 13416,
    "bromwich": 27888,
    "##ctor": 16761,
    "cassidy": 13737,
    "metabolic": 21453,
    "doom": 12677,
    "1730": 23272,
    "raft": 21298,
    "nme": 23770,
    "sawyer": 13975,
    "〉": 1638,
    "prequel": 28280,
    "listen": 4952,
    "creek": 3636,
    "[unused864]": 869,
    "measurements": 11702,
    "##♣": 30151,
    "##hole": 11484,
    "oath": 11292,
    "slack": 19840,
    "##wyn": 11761,
    "karim": 25461,
    "##minating": 27932,
    "alfa": 22989,
    "hauling": 23113,
    "condoms": 29094,
    "alberto": 12007,
    "slab": 17584,
    "borne": 15356,
    "graphics": 8389,
    "##uel": 16284,
    "152": 15017,
    "whoa": 23281,
    "cue": 16091,
    "outdoor": 7254,
    "##iko": 12676,
    "[unused968]": 973,
    "rifles": 9494,
    "57": 5401,
    "quaker": 18844,
    "broncos": 14169,
    "liz": 9056,
    "speaks": 8847,
    "conclude": 16519,
    "##bai": 26068,
    "constantly": 7887,
    "conscience": 13454,
    "prayed": 14283,
    "mist": 11094,
    "gunpowder": 22220,
    "##folk": 29284,
    "cleaning": 9344,
    "burgess": 17754,
    "exposed": 6086,
    "johansson": 26447,
    "mcbride": 18958,
    "detainees": 26485,
    "sire": 15785,
    "serbian": 6514,
    "decreasing": 16922,
    "philology": 29286,
    "##rta": 13320,
    "naia": 29511,
    "afi": 28697,
    "urges": 23876,
    "##疒": 30439,
    "sited": 28603,
    "##christ": 26654,
    "hailey": 21664,
    "indiana": 5242,
    "tiberius": 28411,
    "##ox": 11636,
    "fifth": 3587,
    "subsidies": 21762,
    "flesh": 5771,
    "[unused351]": 356,
    "masters": 5972,
    "castro": 11794,
    "##eim": 12112,
    "nomadic": 21702,
    "moors": 24812,
    "axis": 8123,
    "##rug": 26549,
    "assurance": 16375,
    "##isches": 27239,
    "##lation": 13490,
    "analytic": 23521,
    "garrett": 9674,
    "bicycle": 10165,
    "viper": 17947,
    "lately": 9906,
    "dialogue": 7982,
    "##kovsky": 23829,
    "architecture": 4294,
    "surgery": 5970,
    "[unused704]": 709,
    "restricted": 7775,
    "strawberry": 16876,
    "[unused656]": 661,
    "##dek": 24463,
    "77": 6255,
    "lima": 12967,
    "hackett": 28630,
    "corporal": 14265,
    "pow": 23776,
    "[unused703]": 708,
    "blackberry": 25935,
    "whistling": 24350,
    "sirius": 23466,
    "ortiz": 19439,
    "language": 2653,
    "seeds": 8079,
    "##heart": 22375,
    "ancestor": 13032,
    "pumping": 14107,
    "[unused357]": 362,
    "def": 13366,
    "[unused843]": 848,
    "##ssed": 29417,
    "ﬁ": 1984,
    "predicting": 29458,
    "ᄃ": 1457,
    "[unused749]": 754,
    "munro": 20923,
    "##off": 7245,
    "indifferent": 24436,
    "403": 28203,
    "abduction": 23415,
    "rebellion": 7417,
    "barbecue": 26375,
    "moffat": 28528,
    "wits": 25433,
    "##前": 30302,
    "##link": 13767,
    "game": 2208,
    "idle": 18373,
    "##ulia": 20922,
    "specify": 20648,
    "dwell": 23120,
    "boar": 24187,
    "victories": 9248,
    "eight": 2809,
    "voiced": 6126,
    "##bber": 29325,
    "waterfront": 16317,
    "counterparts": 14562,
    "##orin": 28741,
    "being": 2108,
    "bertie": 20743,
    "zionist": 21379,
    "mater": 16289,
    "##∅": 30121,
    "gilles": 21717,
    "unsuitable": 25622,
    "##rney": 27114,
    "##bill": 24457,
    "fact": 2755,
    "jeep": 14007,
    "clipped": 20144,
    "say": 2360,
    "covers": 4472,
    "onset": 14447,
    "lizzie": 15860,
    "cattle": 7125,
    "needy": 23927,
    "soundtracks": 24245,
    "spectral": 17435,
    "stimuli": 22239,
    "eyelashes": 25150,
    "##ring": 4892,
    "[unused437]": 442,
    "established": 2511,
    "##dad": 14697,
    "##β": 29720,
    "##ɡ": 29682,
    "hills": 4564,
    "embarrassed": 10339,
    "hedge": 17834,
    "##aea": 21996,
    "kneeling": 16916,
    "##erted": 28728,
    "obsidian": 29042,
    "mika": 27857,
    "franchise": 6329,
    "##iq": 18515,
    "[unused787]": 792,
    "1775": 14276,
    "croydon": 21838,
    "##ே": 29934,
    "strive": 29453,
    "##oteric": 29112,
    "notification": 26828,
    "fairies": 20182,
    "[unused786]": 791,
    "agenda": 11376,
    "allegro": 25319,
    "mafia": 13897,
    "didn": 2134,
    "##pile": 22090,
    "aspen": 18567,
    "[unused44]": 45,
    "ewing": 24023,
    "explore": 8849,
    "tub": 14366,
    "##cion": 10446,
    "##amina": 27651,
    "enterprises": 9926,
    "ε": 1159,
    "##nate": 12556,
    "prizes": 11580,
    "##idge": 13623,
    "delicate": 10059,
    "control": 2491,
    "duet": 11979,
    "moritz": 28461,
    "eng": 25540,
    "stock": 4518,
    "correctional": 20873,
    "taiwanese": 16539,
    "##elling": 23918,
    "balanced": 12042,
    "mechanically": 27846,
    "defendants": 16362,
    "deportivo": 23696,
    "##hong": 19991,
    "stabilization": 28715,
    "warp": 24136,
    "stockings": 26412,
    "consumer": 7325,
    "electorate": 13694,
    "##sma": 26212,
    "##any": 19092,
    "neal": 11030,
    "##max": 17848,
    "boer": 19945,
    "leonid": 27316,
    "hardy": 9532,
    "[unused413]": 418,
    "powerful": 3928,
    "romanian": 7056,
    "1695": 29140,
    "##oire": 26250,
    "[unused756]": 761,
    "midsummer": 28171,
    "moe": 22078,
    "cooling": 11520,
    "northumberland": 16205,
    "hated": 6283,
    "qing": 13282,
    "worldwide": 4969,
    "atlanta": 5865,
    "##eric": 22420,
    "##tar": 7559,
    "##dded": 19520,
    "voyage": 8774,
    "subspecies": 11056,
    "sash": 24511,
    "##区": 30308,
    "##cloth": 23095,
    "threatening": 8701,
    "redwood": 27552,
    "document": 6254,
    "beaufort": 23622,
    "appreciated": 12315,
    "somethin": 27941,
    "fifteenth": 16249,
    "##eia": 27958,
    "fry": 14744,
    "reuters": 26665,
    "go": 2175,
    "sessions": 6521,
    "ᴮ": 1491,
    "workforce": 14877,
    "sustained": 8760,
    "##esthesia": 25344,
    "healthy": 7965,
    "##lot": 10994,
    "ha": 5292,
    "sentimental": 23069,
    "qualities": 11647,
    "rides": 12271,
    "tentatively": 19325,
    "diaspora": 18239,
    "む": 1679,
    "##runa": 26605,
    "sweater": 14329,
    "piece": 3538,
    "##thorpe": 22398,
    "mentally": 10597,
    "tower": 3578,
    "ia": 24264,
    "ᄋ": 1463,
    "radiating": 23229,
    "theatres": 13166,
    "tighter": 12347,
    "decrees": 28966,
    "へ": 1675,
    "₍": 1558,
    "alexia": 21683,
    "louise": 8227,
    "cow": 11190,
    "⽥": 1634,
    "arabs": 14560,
    "glamorgan": 23861,
    "##—": 30052,
    "campaigning": 18524,
    "sanford": 21153,
    "shimmering": 22349,
    "napoleonic": 18813,
    "と": 1666,
    "や": 1682,
    "fledgling": 25954,
    "searches": 17193,
    "restraint": 19355,
    "thorne": 14296,
    "1809": 12861,
    "mechanic": 15893,
    "greco": 18180,
    "immortality": 20107,
    "walls": 3681,
    "essentially": 7687,
    "condemnation": 26248,
    "onboard": 27120,
    "relocated": 7448,
    "horne": 24084,
    "##sin": 11493,
    "[unused984]": 989,
    "##vant": 18941,
    "archers": 23118,
    "radial": 15255,
    "engineer": 3992,
    "nearest": 7205,
    "forged": 16158,
    "##fles": 28331,
    "lots": 7167,
    "puppet": 13997,
    "adored": 28456,
    "fists": 10006,
    "defeat": 4154,
    "modernism": 27254,
    "vicinity": 9884,
    "y": 1061,
    "gasp": 12008,
    "admire": 19837,
    "seminole": 28909,
    "ramon": 12716,
    "films": 3152,
    "wore": 5078,
    "dail": 26181,
    "##rik": 15564,
    "apologetic": 29352,
    "skirt": 9764,
    "thierry": 26413,
    "behaved": 26979,
    "wynn": 25328,
    "[unused817]": 822,
    "breached": 25769,
    "##ᵍ": 30036,
    "invaded": 10836,
    "waitress": 13877,
    "##illa": 9386,
    "##ze": 4371,
    "lockheed": 17646,
    "changing": 5278,
    "cheers": 21250,
    "temperate": 16868,
    "withdrew": 6780,
    "consonants": 19694,
    "→": 1585,
    "[unused783]": 788,
    "parasitic": 26045,
    "с": 1196,
    "drinking": 5948,
    "ref": 25416,
    "tre": 29461,
    "makers": 11153,
    "1704": 27769,
    "flattened": 16379,
    "##xes": 20156,
    "screwed": 14180,
    "airline": 8582,
    "addressing": 12786,
    "##zing": 6774,
    "ebert": 22660,
    "##aco": 22684,
    "£3": 28182,
    "luxurious": 20783,
    "empire": 3400,
    "panorama": 23652,
    "receipts": 28258,
    "##aer": 27867,
    "##rza": 24175,
    "##culture": 14561,
    "eclipse": 13232,
    "abducted": 20361,
    "##vr": 19716,
    "1700": 16601,
    "sec": 10819,
    "##rgy": 22637,
    "##jali": 28948,
    "php": 25718,
    "hunan": 27374,
    "bangs": 28490,
    "relation": 7189,
    "de": 2139,
    "topics": 7832,
    "bourbon": 15477,
    "##llon": 22179,
    "disability": 11980,
    "residence": 5039,
    "teeth": 4091,
    "##burn": 8022,
    "autumn": 7114,
    "laughter": 7239,
    "yield": 10750,
    "frogs": 17582,
    "amtrak": 20208,
    "directly": 3495,
    "##yin": 25811,
    "predecessor": 8646,
    "[unused418]": 423,
    "flashlight": 15257,
    "##bo": 5092,
    "steps": 4084,
    "anytime": 15933,
    "monitors": 15410,
    "plata": 19534,
    "danzig": 26669,
    "gustave": 27973,
    "scrolls": 23074,
    "mathematician": 13235,
    "per": 2566,
    "hindus": 18221,
    "versus": 6431,
    "executions": 22679,
    "felony": 24648,
    "##com": 9006,
    "spokesperson": 15974,
    "pony": 15606,
    "quest": 8795,
    "slowed": 9784,
    "subscribers": 17073,
    "herzegovina": 11453,
    "##智": 30395,
    "390": 20024,
    "weak": 5410,
    "－": 1990,
    "alma": 11346,
    "uber": 19169,
    "ieee": 15368,
    "deemed": 8357,
    "ribbons": 22688,
    "overseas": 6931,
    "membership": 5779,
    "connections": 7264,
    "##स": 29874,
    "bumped": 19030,
    "cv": 26226,
    "darrell": 23158,
    "excavated": 15199,
    "potomac": 18854,
    "calm": 5475,
    "pressing": 7827,
    "[unused678]": 683,
    "##tarian": 28897,
    "emerged": 6003,
    "airbus": 20901,
    "proteins": 8171,
    "believed": 3373,
    "2010": 2230,
    "425": 23285,
    "wiener": 25072,
    "##500": 29345,
    "##physics": 15638,
    "##ping": 4691,
    "seals": 13945,
    "files": 6764,
    "capcom": 26861,
    "wat": 28194,
    "about": 2055,
    "elf": 17163,
    "submissions": 27842,
    "haley": 16624,
    "toro": 23790,
    "[unused445]": 450,
    "valleys": 12467,
    "waterloo": 13784,
    "episcopal": 9134,
    "tuscany": 23322,
    "judges": 6794,
    "##fighter": 20027,
    "nh": 18699,
    "quality": 3737,
    "grunt": 20696,
    "toni": 16525,
    "bishop": 3387,
    "principle": 6958,
    "husbands": 19089,
    "cooperation": 6792,
    "1749": 24704,
    "stealing": 11065,
    "coin": 9226,
    "mb": 16914,
    "capacity": 3977,
    "dignitaries": 27960,
    "瀬": 1905,
    "##ato": 10610,
    "funds": 5029,
    "athena": 21880,
    "echoing": 17142,
    "35th": 20198,
    "##म": 29867,
    "loosen": 29476,
    "[unused746]": 751,
    "discontent": 27648,
    "network": 2897,
    "sloop": 24786,
    "sectional": 27197,
    "##₂": 8229,
    "[unused288]": 293,
    "anna": 4698,
    "steven": 7112,
    "gloria": 10778,
    "chronology": 17873,
    "190": 11827,
    "placement": 11073,
    "quintet": 18109,
    "lucrative": 21115,
    "goaltender": 21437,
    "##ry": 2854,
    "##eger": 26320,
    "crossbow": 28692,
    "xp": 26726,
    "##fighting": 22158,
    "pigment": 28815,
    "freighter": 27945,
    "vibrated": 27801,
    "##ध": 29862,
    "foil": 17910,
    "economically": 15318,
    "occupy": 11494,
    "louisa": 15731,
    "encoded": 12359,
    "gt": 14181,
    "keating": 25865,
    "contemplated": 23133,
    "subsided": 26588,
    "##act": 18908,
    "rosie": 15820,
    "port": 3417,
    "ह": 1339,
    "tenure": 7470,
    "drop": 4530,
    "operated": 3498,
    "shenzhen": 26555,
    "houghton": 21234,
    "pond": 8644,
    "oceanic": 18955,
    "decades": 5109,
    "isotope": 28846,
    "highlight": 12944,
    "distrust": 29245,
    "panel": 5997,
    "snuck": 24492,
    "drastically": 21040,
    "ported": 27650,
    "reproduction": 14627,
    "differs": 12980,
    "weaving": 15360,
    "##verance": 21998,
    "fontana": 27182,
    "unofficially": 29322,
    "construction": 2810,
    "き": 1652,
    "evacuation": 13982,
    "[unused138]": 143,
    "processes": 6194,
    "spaceship": 25516,
    "vatican": 12111,
    "##ined": 21280,
    "columbian": 25882,
    "##ution": 13700,
    "asking": 4851,
    "shivering": 19197,
    "excuse": 8016,
    "centuries": 4693,
    "cyclic": 23750,
    "persuaded": 11766,
    "##lham": 25968,
    "trondheim": 26331,
    "jarrett": 24503,
    "barbarians": 28056,
    "ⁿ": 1546,
    "##ser": 8043,
    "comprising": 9605,
    "termination": 18287,
    "desires": 14714,
    "tony": 4116,
    "##ר": 29811,
    "clustered": 25221,
    "##nidae": 29135,
    "ev": 23408,
    "tailored": 21727,
    "greene": 11006,
    "spontaneous": 17630,
    "2018": 2760,
    "quo": 22035,
    "trolley": 20820,
    "##ii": 6137,
    "passionate": 13459,
    "customized": 28749,
    "surely": 7543,
    "車": 1954,
    "henry": 2888,
    "375": 18034,
    "##st": 3367,
    "tanker": 20135,
    "区": 1782,
    "medici": 22605,
    "##tech": 15007,
    "suffered": 4265,
    "sneaking": 20727,
    "abdomen": 13878,
    "cafe": 7668,
    "lanka": 7252,
    "ngc": 27645,
    "##ao": 7113,
    "horseback": 19926,
    "absorb": 16888,
    "blu": 14154,
    "patiently": 19080,
    "giles": 13287,
    "##cio": 9793,
    "##ो": 29879,
    "binds": 20817,
    "consciousness": 8298,
    "##jana": 18803,
    "struggled": 6915,
    "##glers": 25555,
    "withdrawn": 9633,
    "introduction": 4955,
    "rapid": 5915,
    "##sher": 19603,
    "novella": 20674,
    "reveals": 7657,
    "congresses": 24460,
    "cracks": 15288,
    "kosovo": 11491,
    "cheerleading": 25721,
    "म": 1331,
    "crushed": 10560,
    "watt": 15231,
    "grandpa": 15310,
    "tens": 15295,
    "merging": 16468,
    "cooperative": 10791,
    "tina": 11958,
    "olive": 9724,
    "revolving": 24135,
    "valued": 11126,
    "huang": 15469,
    "prejudice": 18024,
    "##ganj": 22738,
    "†": 1526,
    "rm": 28549,
    "escorted": 13127,
    "[CLS]": 101,
    "1907": 5528,
    "##比": 30416,
    "roaring": 17197,
    "bulk": 9625,
    "[unused676]": 681,
    "pedersen": 27409,
    "##aga": 16098,
    "levi": 11902,
    "bridge": 2958,
    "stress": 6911,
    "[unused941]": 946,
    "ও": 1352,
    "enigma": 26757,
    "##nne": 10087,
    "ج": 1275,
    "mice": 12328,
    "corresponded": 27601,
    "referred": 3615,
    "আ": 1348,
    "##rring": 18807,
    "breeding": 8119,
    "##分": 30301,
    "starr": 14330,
    "carnival": 11485,
    "geo": 20248,
    "##nated": 23854,
    "augusto": 29085,
    "208": 18512,
    "quarterly": 12174,
    "##bane": 27543,
    "betsy": 22396,
    "##erine": 24226,
    "fiancee": 19455,
    "##mission": 25481,
    "research": 2470,
    "mel": 11463,
    "recession": 19396,
    "inuit": 25179,
    "media": 2865,
    "painting": 4169,
    "councils": 10784,
    "alexis": 13573,
    "chloride": 19057,
    "poultry": 22468,
    "assumptions": 17568,
    "exchanging": 25620,
    "##ivism": 22486,
    "lingered": 17645,
    "android": 11924,
    "continuity": 13717,
    "polo": 11037,
    "olaf": 20514,
    "場": 1806,
    "participates": 17257,
    "afghan": 12632,
    "portugal": 5978,
    "widow": 7794,
    "renaissance": 8028,
    "questioned": 8781,
    "[unused549]": 554,
    "titular": 12960,
    "himalayas": 26779,
    "exceed": 13467,
    "orbits": 20347,
    "seminars": 17239,
    "##ision": 19969,
    "laurence": 10883,
    "stockholm": 8947,
    "192": 17613,
    "allies": 6956,
    "phylogenetic": 23192,
    "wylie": 29152,
    "germanic": 15139,
    "quota": 20563,
    "pontiac": 24538,
    "rejected": 5837,
    "guerra": 24698,
    "##lma": 19145,
    "hymn": 14825,
    "pink": 5061,
    "##imated": 20592,
    "##aldi": 24657,
    "striking": 8478,
    "voting": 6830,
    "pathways": 16910,
    "ल": 1334,
    "delay": 8536,
    "artist": 3063,
    "melanie": 13286,
    "decisions": 6567,
    "notified": 19488,
    "illustrates": 24899,
    "chickens": 21868,
    "wheelchair": 13204,
    "crowns": 24364,
    "janata": 20308,
    "ample": 20851,
    "##hus": 9825,
    "##endez": 28787,
    "##sar": 10286,
    "faltered": 26015,
    "##ated": 4383,
    "affects": 13531,
    "beijing": 7211,
    "improvements": 8377,
    "eased": 10987,
    "tyne": 17742,
    "adam": 4205,
    "beta": 8247,
    "##ψ": 29738,
    "favourite": 8837,
    "##hta": 22893,
    "scotia": 9676,
    "ミ": 1724,
    "##ska": 8337,
    "logical": 11177,
    "differential": 11658,
    "##dora": 24562,
    "buddies": 24115,
    "triangular": 14023,
    "astronomy": 12799,
    "squared": 19942,
    "grooves": 25880,
    "kane": 8472,
    "##orro": 29459,
    "brazil": 4380,
    "philippines": 5137,
    "encompass": 25281,
    "##puram": 17809,
    "##ى": 29837,
    "ltd": 5183,
    "meantime": 12507,
    "screenwriter": 11167,
    "outward": 15436,
    "famine": 15625,
    "drain": 12475,
    "june": 2238,
    "##uchi": 15217,
    "##thing": 20744,
    "[unused744]": 749,
    "matching": 9844,
    "archaeological": 7611,
    "choi": 18151,
    "pry": 29198,
    "sera": 26358,
    "grading": 26886,
    "harmed": 25596,
    "##gled": 11533,
    "##lier": 14355,
    "dimensions": 9646,
    "[unused611]": 616,
    "natalie": 10829,
    "paths": 10425,
    "constitute": 12346,
    "churning": 26765,
    "employee": 7904,
    "abolition": 15766,
    "saves": 13169,
    "gilbert": 7664,
    "[unused62]": 63,
    "河": 1899,
    "##∪": 30132,
    "##linger": 23101,
    "geared": 23636,
    "livelihood": 24585,
    "escorting": 23831,
    "enjoyed": 5632,
    "latino": 7402,
    "dripping": 14309,
    "clue": 9789,
    "commercials": 12698,
    "cobra": 16604,
    "destined": 16036,
    "chuckles": 26088,
    "socialists": 21633,
    "sharif": 20351,
    "[unused797]": 802,
    "pause": 8724,
    "##tera": 14621,
    "groceries": 26298,
    "cw": 19296,
    "stroke": 6909,
    "transforms": 21743,
    "##g": 2290,
    "published": 2405,
    "devin": 23601,
    "dev": 16475,
    "[unused664]": 669,
    "dirk": 17594,
    "homeland": 10759,
    "docking": 25776,
    "surplus": 15726,
    "delta": 7160,
    "[unused645]": 650,
    "intercity": 20651,
    "club": 2252,
    "convicts": 24948,
    "##olar": 19478,
    "evacuated": 13377,
    "[unused241]": 246,
    "survived": 5175,
    "mercenary": 22146,
    "entropy": 23077,
    "trance": 16588,
    "units": 3197,
    "##urgent": 27176,
    "365": 19342,
    "trapped": 7567,
    "helplessly": 24942,
    "app": 10439,
    "chamber": 4574,
    "plumbing": 27902,
    "occupied": 4548,
    "recited": 24843,
    "laborers": 23428,
    "dealt": 9411,
    "1931": 4739,
    "##zle": 29247,
    "economics": 5543,
    "[unused438]": 443,
    "tyson": 19356,
    "oro": 20298,
    "galen": 21062,
    "##ite": 4221,
    "wheat": 10500,
    "##tec": 26557,
    "snow": 4586,
    "ध": 1326,
    "presiding": 18131,
    "』": 1644,
    "routine": 9410,
    "truss": 24224,
    "frequencies": 13139,
    "decides": 7288,
    "adi": 27133,
    "##ki": 3211,
    "[unused269]": 274,
    "sud": 19219,
    "distributing": 20083,
    "##iny": 24300,
    "##vos": 19862,
    "も": 1681,
    "forecast": 19939,
    "daryl": 22514,
    "listener": 19373,
    "##ome": 8462,
    "sober": 17358,
    "orgasm": 13892,
    "flipping": 18497,
    "##ility": 15148,
    "drained": 11055,
    "elliptic": 29413,
    "aware": 5204,
    "leone": 13363,
    "marc": 7871,
    "electromagnetic": 17225,
    "officials": 4584,
    "seychelles": 27438,
    "sediments": 20476,
    "trees": 3628,
    "##tas": 10230,
    "bitterness": 22364,
    "artworks": 22000,
    "rough": 5931,
    "illustrations": 11249,
    "##ging": 4726,
    "trumpeter": 28220,
    "lattice": 17779,
    "##tered": 14050,
    "lawn": 10168,
    "dressed": 5102,
    "almeida": 29555,
    "##chee": 25923,
    "stricken": 16654,
    "[unused729]": 734,
    "displeasure": 28606,
    "##nna": 9516,
    "fruits": 10962,
    "nights": 6385,
    "##元": 30295,
    "parramatta": 22820,
    "##wee": 28394,
    "bias": 13827,
    "世": 1745,
    "##usia": 24118,
    "requiring": 9034,
    "blah": 27984,
    "##-": 29624,
    "##65": 26187,
    "opens": 7480,
    "rao": 10546,
    "«": 1077,
    "beaumont": 16210,
    "damaging": 15011,
    "##xia": 14787,
    "excelled": 23081,
    "commissions": 13239,
    "moons": 23377,
    "hubert": 15346,
    "##ndon": 19333,
    "percussion": 6333,
    "holder": 9111,
    "brings": 7545,
    "mortals": 23844,
    "##dant": 28210,
    "##ime": 14428,
    "destination": 7688,
    "their": 2037,
    "lightning": 7407,
    "commune": 5715,
    "##np": 16275,
    "callahan": 25668,
    "##isman": 20257,
    "sailing": 8354,
    "promotes": 14067,
    "assessed": 14155,
    "desperately": 9652,
    "##ung": 5575,
    "controls": 7711,
    "starving": 18025,
    "jamal": 24132,
    "antennae": 28624,
    "##mani": 20799,
    "sees": 5927,
    "მ": 1448,
    "##ʌ": 29700,
    "##mering": 27851,
    "yusuf": 23495,
    "entrepreneurs": 17633,
    "editor": 3559,
    "##titles": 27430,
    "པ": 1430,
    "quantity": 11712,
    "##vington": 21827,
    "electrically": 29103,
    "ska": 24053,
    "stripes": 13560,
    "pounded": 13750,
    "hoover": 17443,
    "liverpool": 6220,
    "lash": 25210,
    "respective": 7972,
    "historians": 7862,
    "upgrades": 18739,
    "mathew": 25436,
    "##words": 22104,
    "labyrinth": 24239,
    "jerk": 12181,
    "firstly": 15847,
    "balance": 5703,
    "explores": 15102,
    "benson": 11999,
    "xvi": 16855,
    "knoxville": 20021,
    "patricia": 10717,
    "barcelona": 7623,
    "##izan": 27334,
    "inclusion": 10502,
    "##pling": 14353,
    "portraying": 17274,
    "need": 2342,
    "accordance": 10388,
    "vip": 21722,
    "dieter": 27976,
    "microscopy": 29105,
    "200": 3263,
    "situation": 3663,
    "balfour": 27560,
    "owen": 7291,
    "footballers": 27784,
    "ᅵ": 1483,
    "chestnut": 15655,
    "##duced": 28901,
    "exhausted": 9069,
    "endings": 21306,
    "##rized": 18425,
    "balkans": 19733,
    "manson": 21440,
    "informal": 11900,
    "adobe": 18106,
    "understanding": 4824,
    "attractive": 8702,
    "##mada": 23574,
    "vimes": 28482,
    "##nsen": 29428,
    "criticism": 6256,
    "ք": 1239,
    "rangers": 7181,
    "##uki": 14228,
    "completes": 28123,
    "umar": 27981,
    "##veda": 28614,
    "viewers": 7193,
    "##tonic": 25009,
    "childish": 24282,
    "bitter": 8618,
    "shu": 18454,
    "affectionately": 28734,
    "fail": 8246,
    "lotus": 13030,
    "##ٹ": 29838,
    "barefoot": 22985,
    "truths": 23019,
    "##dome": 26173,
    "##ч": 29752,
    "sumo": 28193,
    "steve": 3889,
    "kin": 12631,
    "##elli": 13348,
    "##tock": 17406,
    "fix": 8081,
    "shaw": 8233,
    "inca": 27523,
    "intervened": 21116,
    "[unused325]": 330,
    "chopper": 28057,
    "##js": 22578,
    "arithmetic": 20204,
    "incentives": 21134,
    "elevator": 7764,
    "##marks": 27373,
    "modernization": 20181,
    "##や": 30208,
    "fancy": 11281,
    "青": 1975,
    "insist": 18292,
    "birmingham": 6484,
    "oliveira": 24263,
    "##dc": 16409,
    "##fort": 13028,
    "somewhere": 4873,
    "present": 2556,
    "##kk": 19658,
    "yearly": 12142,
    "thence": 23166,
    "##zy": 9096,
    "doyle": 11294,
    "##git": 23806,
    "temperatures": 7715,
    "氏": 1891,
    "scarf": 18982,
    "considerably": 9839,
    "monasteries": 15947,
    "##耳": 30463,
    "halfway": 8576,
    "rally": 8320,
    "indirect": 14958,
    "darted": 14051,
    "mag": 23848,
    "there": 2045,
    "superhero": 16251,
    "十": 1783,
    "calvin": 11130,
    "wounds": 8710,
    "mercer": 13081,
    "commissioners": 12396,
    "stats": 26319,
    "markers": 16387,
    "pitt": 15091,
    "##jima": 19417,
    "storytelling": 20957,
    "vt": 28879,
    "##tle": 9286,
    "feminine": 12320,
    "warns": 19428,
    "##anta": 26802,
    "1926": 4881,
    "retro": 22307,
    "retains": 14567,
    "recently": 3728,
    "chan": 9212,
    "consist": 8676,
    "dso": 22951,
    "louie": 17438,
    "sparrow": 19479,
    "volume": 3872,
    "##laus": 28128,
    "##ungen": 23239,
    "##ishment": 21808,
    "valuation": 26004,
    "salt": 5474,
    "criticized": 6367,
    "##tford": 26341,
    "##mine": 11233,
    "laura": 6874,
    "##zia": 12871,
    "necessity": 13185,
    "lawyer": 5160,
    "##roi": 26692,
    "[unused343]": 348,
    "goodman": 14514,
    ";": 1025,
    "gerais": 29220,
    "[unused448]": 453,
    "furlongs": 26602,
    "##walk": 17122,
    "conductors": 23396,
    "##之": 30275,
    "droplets": 27126,
    "admitted": 4914,
    "[unused111]": 116,
    "foremost": 16097,
    "foley": 17106,
    "##station": 20100,
    "saturday": 5095,
    "securities": 12012,
    "biography": 8308,
    "attributes": 12332,
    "mansions": 26842,
    "taxa": 23726,
    "boiler": 15635,
    "natives": 12493,
    "prosperous": 18241,
    "pa": 6643,
    "##目": 30444,
    "mango": 24792,
    "uae": 17641,
    "##mbled": 23931,
    "##雄": 30500,
    "##ended": 21945,
    "honeymoon": 19227,
    "ש": 1266,
    "vinnie": 24214,
    "##chal": 18598,
    "##horn": 9769,
    "argued": 5275,
    "reporter": 6398,
    "absorption": 16326,
    "##tic": 4588,
    "ruled": 5451,
    "fifty": 5595,
    "broadcasting": 5062,
    "##verted": 26686,
    "fugitive": 21329,
    "disabilities": 13597,
    "exhibited": 8176,
    "archibald": 15917,
    "panzer": 16946,
    "imagination": 9647,
    "##く": 30179,
    "##ats": 11149,
    "whiskey": 13803,
    "horace": 12757,
    "later": 2101,
    "argue": 7475,
    "[unused49]": 50,
    "prey": 8336,
    "copper": 6967,
    "cunning": 23626,
    "ष": 1337,
    "juarez": 25398,
    "shipbuilding": 16802,
    "850": 15678,
    "duluth": 28218,
    "please": 3531,
    "peered": 10757,
    "ivory": 11554,
    "##ometric": 28993,
    "laos": 15786,
    "archduke": 27463,
    "blinded": 20641,
    "avery": 12140,
    "lucky": 5341,
    "##mounted": 27632,
    "yankee": 17652,
    "tchaikovsky": 25900,
    "##actic": 28804,
    "belongings": 20033,
    "dangers": 16796,
    "supervise": 28589,
    "playoff": 7808,
    "150": 5018,
    "mustard": 23187,
    "##tidae": 21861,
    "strips": 12970,
    "ecological": 12231,
    "enoch": 28178,
    "hits": 4978,
    "convey": 16636,
    "canoe": 14347,
    "natal": 17489,
    "earlier": 3041,
    "guardians": 14240,
    "ussr": 10331,
    "stripe": 18247,
    "##itarian": 25691,
    "##ah": 4430,
    "nantes": 25387,
    "##gas": 12617,
    "##־": 29787,
    "coma": 16571,
    "ian": 4775,
    "##ting": 3436,
    "uncomfortably": 22502,
    "tough": 7823,
    "##tism": 17456,
    "without": 2302,
    "##if": 10128,
    "abilities": 7590,
    "1742": 25704,
    "ceiling": 5894,
    "[unused180]": 185,
    "##な": 30193,
    "##owski": 15249,
    "denominations": 17384,
    "railways": 7111,
    "jordan": 5207,
    "hospital": 2902,
    "1788": 15622,
    "forthcoming": 16875,
    "heraldic": 28867,
    "[unused985]": 990,
    "vicente": 17280,
    "recapture": 27639,
    "[unused189]": 194,
    "##nant": 16885,
    "##rgan": 16998,
    "4000": 20143,
    "partnered": 12404,
    "denying": 16039,
    "##clave": 23650,
    "##evsky": 27015,
    "obsessed": 15896,
    "##bid": 17062,
    "tiled": 26510,
    "nipples": 28124,
    "projected": 11310,
    "offences": 18421,
    "##ী": 29916,
    "smoked": 20482,
    "##ady": 18632,
    "stretched": 7121,
    "goalscorer": 28602,
    "chicken": 7975,
    "andrei": 18125,
    "##ₐ": 30089,
    "facilitated": 19601,
    "bared": 23485,
    "heath": 9895,
    "deleted": 17159,
    "lad": 14804,
    "hal": 11085,
    "hostages": 19323,
    "di": 4487,
    "##≈": 30133,
    "sperm": 18047,
    "##eza": 28640,
    "projection": 13996,
    "hendrix": 20645,
    "replaced": 2999,
    "##oo": 9541,
    "reconstruction": 8735,
    "tense": 9049,
    "pac": 14397,
    "maldives": 25059,
    "##oids": 17086,
    "lam": 16983,
    "##9th": 25660,
    "wrestled": 20615,
    "##som": 25426,
    "veins": 9607,
    "highs": 26836,
    "derelict": 28839,
    "dyer": 23494,
    "inches": 5282,
    "316": 23980,
    "buddha": 11903,
    "mandir": 22700,
    "contingent": 15445,
    "sultanate": 21308,
    "auction": 10470,
    "##ɪ": 29685,
    "flows": 6223,
    "##★": 30147,
    "apologized": 17806,
    "##？": 30520,
    "sarajevo": 18354,
    "testing": 5604,
    "seating": 10747,
    "ז": 1247,
    "odisha": 21874,
    "huntsville": 28492,
    "survey": 5002,
    "palatine": 22202,
    "laundering": 28289,
    "parapet": 27372,
    "holly": 9079,
    "phosphate": 17344,
    "ি": 1379,
    "##naire": 20589,
    "##eus": 10600,
    "[unused634]": 639,
    "economists": 22171,
    "##µ": 29659,
    "regression": 26237,
    "utter": 14395,
    "circled": 14867,
    "##crest": 25313,
    "wildlife": 6870,
    "furthermore": 7297,
    "##⊆": 30138,
    "looks": 3504,
    "voters": 7206,
    "פ": 1261,
    "mommy": 20565,
    "defect": 21262,
    "blair": 10503,
    "worst": 5409,
    "##ial": 4818,
    "hyde": 11804,
    "##woods": 25046,
    "corporations": 11578,
    "##rent": 22787,
    "semitic": 20604,
    "##lizer": 28863,
    "hyper": 23760,
    "##lin": 4115,
    "munich": 7469,
    "hue": 20639,
    "catholics": 10774,
    "visionary": 28036,
    "##tenberg": 21806,
    "jaenelle": 20757,
    "##ほ": 30202,
    "hello": 7592,
    "affection": 12242,
    "insignificant": 27018,
    "##uin": 20023,
    "tale": 6925,
    "##stra": 20528,
    "robbie": 12289,
    "##་": 29960,
    "orion": 18747,
    "places": 3182,
    "spurs": 18205,
    "knighted": 19572,
    "caracas": 21675,
    "criticisms": 19628,
    "##see": 19763,
    "commitments": 17786,
    "fc": 4429,
    "beforehand": 25828,
    "benny": 11945,
    "comparisons": 18539,
    "[unused35]": 36,
    "shandong": 25768,
    "activists": 10134,
    "tiles": 13262,
    "pursued": 9505,
    "cruel": 10311,
    "heresy": 28354,
    "[unused900]": 905,
    "pendulum": 28300,
    "nara": 27544,
    "##kel": 11705,
    "balkan": 17581,
    "showcasing": 27696,
    "clues": 15774,
    "##lia": 6632,
    "may": 2089,
    "[unused699]": 704,
    "nowadays": 13367,
    "trivial": 20610,
    "##iani": 25443,
    "bonding": 19882,
    "marius": 20032,
    "heller": 25038,
    "##yne": 9654,
    "##inated": 15833,
    "ching": 19992,
    "##hon": 8747,
    "ag": 12943,
    "shetland": 25552,
    "bonnie": 12220,
    "##3": 2509,
    "rhythms": 17900,
    "pietro": 15541,
    "provisions": 8910,
    "excavations": 14018,
    "jane": 4869,
    "tops": 13284,
    "neurons": 15698,
    "synagogue": 13067,
    "##llar": 17305,
    "spat": 14690,
    "lured": 26673,
    "api": 17928,
    "benches": 19571,
    "อ": 1421,
    "##tly": 14626,
    "##月": 30398,
    "244": 24194,
    "161": 17365,
    "gaza": 14474,
    "1850": 7973,
    "harrisburg": 24569,
    "intellect": 24823,
    "##bt": 19279,
    "##中": 30272,
    "siam": 25583,
    "##yria": 20379,
    "198": 20003,
    "##fide": 20740,
    "symposium": 17899,
    "infrastructure": 6502,
    "1903": 5778,
    "tibet": 13319,
    "[unused698]": 703,
    "riga": 17557,
    "##15": 16068,
    "248": 24568,
    "conway": 14783,
    "opined": 26084,
    "advocated": 11886,
    "slots": 19832,
    "forest": 3224,
    "accordion": 19060,
    "britney": 29168,
    "fellowship": 7881,
    "##hma": 22444,
    "yours": 6737,
    "gestured": 11574,
    "qualify": 7515,
    "##镇": 30492,
    "speculative": 23250,
    "mildly": 19499,
    "partisan": 14254,
    "gertrude": 18734,
    "nassau": 14646,
    "##ively": 14547,
    "honestly": 9826,
    "outlaws": 23107,
    "militant": 16830,
    "affluent": 22666,
    "buy": 4965,
    "northbound": 20055,
    "contacts": 10402,
    "##mac": 22911,
    "##stor": 23809,
    "rallied": 24356,
    "candidacy": 17057,
    "faced": 4320,
    "conferences": 9281,
    "##wana": 21761,
    "bolts": 19947,
    "affair": 6771,
    "##tsa": 27110,
    "messenger": 11981,
    "hormones": 20752,
    "skin": 3096,
    "newmarket": 22489,
    "bride": 8959,
    "thinking": 3241,
    "demo": 9703,
    "##itch": 20189,
    "forgetting": 17693,
    "miranda": 9392,
    "lehman": 28444,
    "publisher": 6674,
    "##ades": 18673,
    "ʀ": 1127,
    "recovery": 7233,
    "economy": 4610,
    "tempted": 16312,
    "audience": 4378,
    "hardcore": 13076,
    "prime": 3539,
    "##minster": 24431,
    "amazing": 6429,
    "java": 9262,
    "##xi": 9048,
    "kaye": 23686,
    "rector": 10935,
    "lacey": 16355,
    "packet": 14771,
    "manipulation": 16924,
    "##athy": 17308,
    "##lka": 26518,
    "vito": 25550,
    "[unused523]": 528,
    "spine": 8560,
    "bogota": 21240,
    "vulgar": 29364,
    "squeezing": 15328,
    "grind": 23088,
    "bollywood": 16046,
    "throbbing": 17061,
    "##ade": 9648,
    "weaken": 23021,
    "poster": 13082,
    "decreases": 17913,
    "vegetarian": 23566,
    "##liness": 20942,
    "amman": 25703,
    "##ust": 19966,
    "ch": 10381,
    "detained": 14620,
    "##王": 30435,
    "begged": 12999,
    "ebook": 26885,
    "finishes": 12321,
    "eastman": 24252,
    "citing": 8951,
    "##eke": 23941,
    "##kr": 21638,
    "melbourne": 4940,
    "ponder": 29211,
    "losses": 6409,
    "gavin": 9448,
    "moss": 10636,
    "guadalajara": 22887,
    "vibrant": 17026,
    "ser": 14262,
    "##erton": 20995,
    "##dana": 25917,
    "##sonic": 18585,
    "[unused194]": 199,
    "##sca": 15782,
    "##ker": 5484,
    "intuitive": 29202,
    "anything": 2505,
    "##aith": 22465,
    "##l": 2140,
    "##100": 18613,
    "branding": 16140,
    "rites": 17105,
    "clean": 4550,
    "upwards": 14873,
    "swinging": 11820,
    "wines": 14746,
    "##8th": 28264,
    "₅": 1552,
    "stolen": 7376,
    "antoinette": 28429,
    "##cure": 23887,
    "fargo": 23054,
    "brig": 16908,
    "stoke": 13299,
    "abdul": 10298,
    "repay": 24565,
    "##weather": 28949,
    "tasting": 18767,
    "outrage": 19006,
    "##vat": 22879,
    "##iman": 18505,
    "##dling": 14423,
    "##hold": 12640,
    "gulf": 6084,
    "1699": 28718,
    "##bial": 21102,
    "##ocks": 25384,
    "##time": 7292,
    "defense": 3639,
    "1872": 7572,
    "eleanor": 10508,
    "danny": 6266,
    "overrun": 24672,
    "[unused734]": 739,
    "##き": 30178,
    "netting": 26909,
    "follower": 22399,
    "clan": 6338,
    "twitter": 10474,
    "43rd": 25747,
    "wrote": 2626,
    "educational": 4547,
    "socialism": 14649,
    "creator": 8543,
    "##udes": 22087,
    "339": 28977,
    "bloomington": 26372,
    "squealed": 26175,
    "相": 1919,
    "troy": 9553,
    "captivity": 16187,
    "speeches": 13867,
    "sight": 4356,
    "return": 2709,
    "##icles": 20921,
    "wing": 3358,
    "announce": 14970,
    "saved": 5552,
    "ciudad": 20759,
    "selma": 28112,
    "870": 28864,
    "[unused132]": 137,
    "kilometre": 13214,
    "offended": 15807,
    "b1": 29491,
    "playing": 2652,
    "restoring": 16487,
    "multiplied": 28608,
    "reminded": 6966,
    "providers": 11670,
    "conner": 17639,
    "so": 2061,
    "entered": 3133,
    "##ies": 3111,
    "agriculture": 5237,
    "##zz": 13213,
    "developed": 2764,
    "##aca": 19629,
    "undertaker": 27568,
    "victory": 3377,
    "##force": 14821,
    "##ovic": 9142,
    "psyche": 25774,
    "sudanese": 25603,
    "pharaoh": 22089,
    "examine": 11628,
    "penguins": 18134,
    "analyses": 16478,
    "courier": 18092,
    "solids": 26778,
    "bombay": 11831,
    "bal": 28352,
    "hussein": 16543,
    "assertion": 23617,
    "correlated": 23900,
    "researches": 27338,
    "##claim": 25154,
    "lombard": 23441,
    "windshield": 19521,
    "long": 2146,
    "aqua": 28319,
    "linguist": 22978,
    "vh1": 26365,
    "syrian": 9042,
    "slips": 17433,
    "##cent": 13013,
    "align": 25705,
    "nerve": 9113,
    "##urities": 29366,
    "elephants": 16825,
    "curran": 19649,
    "jamaica": 9156,
    "[unused908]": 913,
    "motor": 5013,
    "298": 27240,
    "harrison": 6676,
    "manly": 19385,
    "habits": 14243,
    "bjorn": 24998,
    "conference": 3034,
    "issuing": 15089,
    "curving": 21439,
    "disturbances": 24535,
    "stressed": 13233,
    "compliment": 19394,
    "prelude": 19508,
    "cracked": 9630,
    "homosexuality": 15949,
    "##chaft": 29043,
    "##gging": 12588,
    "battles": 7465,
    "race": 2679,
    "commentary": 8570,
    "acknowledges": 28049,
    "premiere": 6765,
    "sauce": 12901,
    "expecting": 8074,
    "day": 2154,
    "##eptive": 22048,
    "##в": 25529,
    "ے": 1310,
    "around": 2105,
    "##chus": 16194,
    "##lide": 24198,
    "zhejiang": 26805,
    "admit": 6449,
    "tired": 5458,
    "spectators": 12405,
    "##pheus": 22809,
    "reiterated": 28960,
    "serbia": 7238,
    "scranton": 26123,
    "exact": 6635,
    "maid": 10850,
    "pupils": 7391,
    "##logical": 9966,
    "choreographer": 17334,
    "acquainted": 19056,
    "bosses": 23029,
    "farms": 8623,
    "briefly": 4780,
    "borrowing": 23733,
    "amplifier": 22686,
    "⁻": 1545,
    "radios": 22229,
    "visitors": 5731,
    "清": 1903,
    "##ron": 4948,
    "ni": 9152,
    "##ape": 24065,
    "ս": 1234,
    "！": 1986,
    "controversial": 6801,
    "[unused442]": 447,
    "¤": 1070,
    "generators": 16937,
    "really": 2428,
    "afc": 10511,
    "rosen": 21701,
    "##¤": 29647,
    "reflex": 22259,
    "##wice": 23425,
    "weird": 6881,
    "[unused547]": 552,
    "282": 26267,
    "brew": 24702,
    "persist": 29486,
    "ɕ": 1113,
    "witness": 7409,
    "pulled": 2766,
    "hanover": 14393,
    "kant": 26044,
    "meter": 8316,
    "loans": 10940,
    "campeonato": 17675,
    "##ᅯ": 30015,
    "##uke": 15851,
    "##erly": 12561,
    "wasting": 18313,
    "##cker": 9102,
    "##伊": 30288,
    "ტ": 1453,
    "enhance": 11598,
    "endowed": 19038,
    "harlow": 22545,
    "markus": 23030,
    "debbie": 16391,
    "jo": 8183,
    "bedfordshire": 28430,
    "vicky": 22845,
    "##vino": 26531,
    "placed": 2872,
    "greek": 3306,
    "foam": 17952,
    "geese": 28519,
    "subdivision": 12572,
    "##acion": 21736,
    "kingston": 9803,
    "sol": 14017,
    "seville": 18983,
    "##ores": 16610,
    "tigers": 7600,
    "lasers": 23965,
    "poem": 5961,
    "##yn": 6038,
    "appreciate": 9120,
    "carroll": 10767,
    "electron": 10496,
    "sasha": 14673,
    "runs": 3216,
    "regimental": 17604,
    "parade": 7700,
    "more": 2062,
    "algebra": 11208,
    "basque": 13915,
    "1812": 9842,
    "##¡": 29644,
    "affairs": 3821,
    "##kor": 21815,
    "overshadowed": 28604,
    "linen": 17517,
    "woodstock": 21028,
    "vendor": 21431,
    "##eras": 24140,
    "sack": 12803,
    "67": 6163,
    "starvation": 22611,
    "qu": 24209,
    "##ʿ": 29714,
    "##uously": 28078,
    "asahi": 29465,
    "pali": 28619,
    "mein": 24182,
    "galilee": 28928,
    "aside": 4998,
    "lessons": 8220,
    "viceroy": 19007,
    "福": 1926,
    "trademark": 11749,
    "##ɕ": 29680,
    "such": 2107,
    "fern": 20863,
    "injunction": 22928,
    "##kind": 18824,
    "juno": 20788,
    "woodrow": 23954,
    "abandoning": 19816,
    "mobility": 12969,
    "breadth": 25291,
    "accurate": 8321,
    "1654": 27445,
    "##bari": 25990,
    "flick": 17312,
[...]
